{
  "version": "1.0",
  "truncation": null,
  "padding": null,
  "added_tokens": [
    {
      "id": 0,
      "content": "[UNK]",
      "single_word": false,
      "lstrip": false,
      "rstrip": false,
      "normalized": false,
      "special": true
    },
    {
      "id": 1,
      "content": "[CLS]",
      "single_word": false,
      "lstrip": false,
      "rstrip": false,
      "normalized": false,
      "special": true
    },
    {
      "id": 2,
      "content": "[SEP]",
      "single_word": false,
      "lstrip": false,
      "rstrip": false,
      "normalized": false,
      "special": true
    },
    {
      "id": 3,
      "content": "[PAD]",
      "single_word": false,
      "lstrip": false,
      "rstrip": false,
      "normalized": false,
      "special": true
    },
    {
      "id": 4,
      "content": "[MASK]",
      "single_word": false,
      "lstrip": false,
      "rstrip": false,
      "normalized": false,
      "special": true
    }
  ],
  "normalizer": null,
  "pre_tokenizer": {
    "type": "Whitespace"
  },
  "post_processor": null,
  "decoder": null,
  "model": {
    "type": "BPE",
    "dropout": null,
    "unk_token": "[UNK]",
    "continuing_subword_prefix": null,
    "end_of_word_suffix": null,
    "fuse_unk": false,
    "vocab": {
      "[UNK]": 0,
      "[CLS]": 1,
      "[SEP]": 2,
      "[PAD]": 3,
      "[MASK]": 4,
      "!": 5,
      "\"": 6,
      "#": 7,
      "$": 8,
      "%": 9,
      "&": 10,
      "'": 11,
      "(": 12,
      ")": 13,
      "*": 14,
      "+": 15,
      ",": 16,
      "-": 17,
      ".": 18,
      "/": 19,
      "0": 20,
      "1": 21,
      "2": 22,
      "3": 23,
      "4": 24,
      "5": 25,
      "6": 26,
      "7": 27,
      "8": 28,
      "9": 29,
      ":": 30,
      ";": 31,
      "<": 32,
      "=": 33,
      ">": 34,
      "?": 35,
      "@": 36,
      "A": 37,
      "B": 38,
      "C": 39,
      "D": 40,
      "E": 41,
      "F": 42,
      "G": 43,
      "H": 44,
      "I": 45,
      "J": 46,
      "K": 47,
      "L": 48,
      "M": 49,
      "N": 50,
      "O": 51,
      "P": 52,
      "Q": 53,
      "R": 54,
      "S": 55,
      "T": 56,
      "U": 57,
      "V": 58,
      "W": 59,
      "X": 60,
      "Y": 61,
      "Z": 62,
      "[": 63,
      "\\": 64,
      "]": 65,
      "^": 66,
      "_": 67,
      "`": 68,
      "a": 69,
      "b": 70,
      "c": 71,
      "d": 72,
      "e": 73,
      "f": 74,
      "g": 75,
      "h": 76,
      "i": 77,
      "j": 78,
      "k": 79,
      "l": 80,
      "m": 81,
      "n": 82,
      "o": 83,
      "p": 84,
      "q": 85,
      "r": 86,
      "s": 87,
      "t": 88,
      "u": 89,
      "v": 90,
      "w": 91,
      "x": 92,
      "y": 93,
      "z": 94,
      "{": 95,
      "|": 96,
      "}": 97,
      "~": 98,
      "th": 99,
      "in": 100,
      "er": 101,
      "an": 102,
      "the": 103,
      "on": 104,
      "ed": 105,
      "re": 106,
      "at": 107,
      "en": 108,
      "or": 109,
      "al": 110,
      "st": 111,
      "ar": 112,
      "and": 113,
      "as": 114,
      "of": 115,
      "ing": 116,
      "es": 117,
      "to": 118,
      "is": 119,
      "it": 120,
      "ou": 121,
      "ic": 122,
      "ion": 123,
      "le": 124,
      "he": 125,
      "ro": 126,
      "il": 127,
      "ac": 128,
      "ent": 129,
      "ad": 130,
      "se": 131,
      "am": 132,
      "om": 133,
      "be": 134,
      "ly": 135,
      "was": 136,
      "for": 137,
      "ch": 138,
      "ve": 139,
      "de": 140,
      "ur": 141,
      "ol": 142,
      "ir": 143,
      "The": 144,
      "im": 145,
      "-@": 146,
      "@-@": 147,
      "ig": 148,
      "ver": 149,
      "ter": 150,
      "wh": 151,
      "ow": 152,
      "un": 153,
      "ith": 154,
      "ce": 155,
      "ay": 156,
      "id": 157,
      "con": 158,
      "ation": 159,
      "ct": 160,
      "with": 161,
      "ag": 162,
      "that": 163,
      "te": 164,
      "by": 165,
      "us": 166,
      "ot": 167,
      "el": 168,
      "ere": 169,
      "ri": 170,
      "ul": 171,
      "ap": 172,
      "et": 173,
      "ut": 174,
      "19": 175,
      "res": 176,
      "ain": 177,
      "ers": 178,
      "op": 179,
      "pl": 180,
      "com": 181,
      "his": 182,
      "rom": 183,
      "um": 184,
      "all": 185,
      "00": 186,
      "ab": 187,
      "oun": 188,
      "ist": 189,
      "mo": 190,
      "su": 191,
      "ne": 192,
      "sh": 193,
      "pro": 194,
      "pe": 195,
      "from": 196,
      "In": 197,
      "cl": 198,
      "ate": 199,
      "are": 200,
      "li": 201,
      "tr": 202,
      "art": 203,
      "ther": 204,
      "os": 205,
      "igh": 206,
      "em": 207,
      "di": 208,
      "ex": 209,
      "ber": 210,
      "est": 211,
      "ich": 212,
      "ak": 213,
      "ld": 214,
      "were": 215,
      "oc": 216,
      "ill": 217,
      "ard": 218,
      "ast": 219,
      "ies": 220,
      "ant": 221,
      "per": 222,
      "ong": 223,
      "qu": 224,
      "gh": 225,
      "ment": 226,
      "ated": 227,
      "man": 228,
      "ive": 229,
      "out": 230,
      "ame": 231,
      "ity": 232,
      "ess": 233,
      "fe": 234,
      "od": 235,
      "our": 236,
      "had": 237,
      "end": 238,
      "ish": 239,
      "ack": 240,
      "ort": 241,
      "one": 242,
      "als": 243,
      "av": 244,
      "ge": 245,
      "over": 246,
      "ear": 247,
      "tw": 248,
      "af": 249,
      "ip": 250,
      "which": 251,
      "ough": 252,
      "der": 253,
      "but": 254,
      "gr": 255,
      "not": 256,
      "vi": 257,
      "ass": 258,
      "act": 259,
      "ally": 260,
      "ound": 261,
      "ave": 262,
      "str": 263,
      "ine": 264,
      "ight": 265,
      "her": 266,
      "ary": 267,
      "rit": 268,
      "ud": 269,
      "its": 270,
      "iv": 271,
      "du": 272,
      "pr": 273,
      "ian": 274,
      "ep": 275,
      "if": 276,
      "St": 277,
      "Ch": 278,
      "ore": 279,
      "20": 280,
      "wor": 281,
      "fir": 282,
      "up": 283,
      "200": 284,
      "ew": 285,
      "ia": 286,
      "ould": 287,
      "cor": 288,
      "au": 289,
      "ous": 290,
      "own": 291,
      "bo": 292,
      "bl": 293,
      "aw": 294,
      "ach": 295,
      "ction": 296,
      "ev": 297,
      "comp": 298,
      "age": 299,
      "ke": 300,
      "att": 301,
      "land": 302,
      "first": 303,
      "port": 304,
      "ign": 305,
      "ition": 306,
      "form": 307,
      "si": 308,
      "their": 309,
      "ical": 310,
      "lo": 311,
      "low": 312,
      "ial": 313,
      "ser": 314,
      "tim": 315,
      "ll": 316,
      "po": 317,
      "ater": 318,
      "also": 319,
      "He": 320,
      "who": 321,
      "br": 322,
      "int": 323,
      "part": 324,
      "ure": 325,
      "18": 326,
      "cre": 327,
      "has": 328,
      "other": 329,
      "ans": 330,
      "have": 331,
      "ome": 332,
      "play": 333,
      "pt": 334,
      "ok": 335,
      "ust": 336,
      "off": 337,
      "cont": 338,
      ".@": 339,
      "@.@": 340,
      "two": 341,
      "ile": 342,
      "ree": 343,
      "ence": 344,
      "co": 345,
      "pres": 346,
      "uring": 347,
      "me": 348,
      "been": 349,
      "pre": 350,
      "ice": 351,
      "we": 352,
      "ance": 353,
      "mer": 354,
      "dis": 355,
      ",@": 356,
      "@,@": 357,
      "201": 358,
      "Th": 359,
      "pos": 360,
      "It": 361,
      "ph": 362,
      "this": 363,
      "ory": 364,
      "year": 365,
      "after": 366,
      "ult": 367,
      "ell": 368,
      "ren": 369,
      "des": 370,
      "ace": 371,
      "sc": 372,
      "ved": 373,
      "fin": 374,
      "ark": 375,
      "An": 376,
      "cent": 377,
      "able": 378,
      "ade": 379,
      "mon": 380,
      "they": 381,
      "incl": 382,
      "ue": 383,
      "ite": 384,
      "ang": 385,
      "ail": 386,
      "Un": 387,
      "work": 388,
      "ever": 389,
      "ced": 390,
      "ff": 391,
      "air": 392,
      "cr": 393,
      "sion": 394,
      "cord": 395,
      "time": 396,
      "sp": 397,
      "inter": 398,
      "urn": 399,
      "ations": 400,
      "would": 401,
      "ship": 402,
      "iz": 403,
      "into": 404,
      "him": 405,
      "ick": 406,
      "vel": 407,
      "spe": 408,
      "she": 409,
      "no": 410,
      "mber": 411,
      "ie": 412,
      "ates": 413,
      "ict": 414,
      "ased": 415,
      "more": 416,
      "ire": 417,
      "ilm": 418,
      "ited": 419,
      "min": 420,
      "old": 421,
      "ty": 422,
      "way": 423,
      "Ar": 424,
      "son": 425,
      "amp": 426,
      "ces": 427,
      "most": 428,
      "og": 429,
      "new": 430,
      "fore": 431,
      "main": 432,
      "Al": 433,
      "bec": 434,
      "ry": 435,
      "any": 436,
      "ten": 437,
      "ret": 438,
      "ase": 439,
      "used": 440,
      "ann": 441,
      "ason": 442,
      "fl": 443,
      "ood": 444,
      "includ": 445,
      "cond": 446,
      "cess": 447,
      "cted": 448,
      "ings": 449,
      "ran": 450,
      "ind": 451,
      "ath": 452,
      "vis": 453,
      "les": 454,
      "ors": 455,
      "red": 456,
      "day": 457,
      "film": 458,
      "when": 459,
      "ted": 460,
      "ton": 461,
      "col": 462,
      "ild": 463,
      "rough": 464,
      "comm": 465,
      "ake": 466,
      "ward": 467,
      "Mar": 468,
      "ob": 469,
      "ck": 470,
      "ican": 471,
      "ens": 472,
      "Au": 473,
      "ts": 474,
      "bu": 475,
      "gan": 476,
      "ra": 477,
      "though": 478,
      "sy": 479,
      "reg": 480,
      "ions": 481,
      "Re": 482,
      "een": 483,
      "Wh": 484,
      "De": 485,
      "during": 486,
      "than": 487,
      "On": 488,
      "ose": 489,
      "again": 490,
      "so": 491,
      "game": 492,
      "gen": 493,
      "under": 494,
      "ble": 495,
      "ubl": 496,
      "char": 497,
      "nor": 498,
      "produ": 499,
      "199": 500,
      "only": 501,
      "ollow": 502,
      "them": 503,
      "about": 504,
      "ide": 505,
      "row": 506,
      "can": 507,
      "ents": 508,
      "while": 509,
      "New": 510,
      "En": 511,
      "ational": 512,
      "oy": 513,
      "some": 514,
      "song": 515,
      "rele": 516,
      "later": 517,
      "led": 518,
      "ered": 519,
      "outh": 520,
      "ele": 521,
      "tween": 522,
      "between": 523,
      "10": 524,
      "sing": 525,
      "ron": 526,
      "ating": 527,
      "coun": 528,
      "three": 529,
      "Af": 530,
      "kn": 531,
      "where": 532,
      "through": 533,
      "num": 534,
      "aid": 535,
      "As": 536,
      "season": 537,
      "ics": 538,
      "ful": 539,
      "view": 540,
      "my": 541,
      "lar": 542,
      "cons": 543,
      "Amer": 544,
      "ern": 545,
      "tain": 546,
      "writ": 547,
      "sub": 548,
      "stru": 549,
      "ied": 550,
      "dr": 551,
      "Le": 552,
      "then": 553,
      "rel": 554,
      "ular": 555,
      "iver": 556,
      "000": 557,
      "ters": 558,
      "sel": 559,
      "Jo": 560,
      "high": 561,
      "second": 562,
      "med": 563,
      "set": 564,
      "made": 565,
      "Com": 566,
      "ef": 567,
      "cur": 568,
      "ames": 569,
      "bum": 570,
      "record": 571,
      "four": 572,
      "do": 573,
      "go": 574,
      "cap": 575,
      "follow": 576,
      "ub": 577,
      "ock": 578,
      "17": 579,
      "spec": 580,
      "call": 581,
      "such": 582,
      "car": 583,
      "sur": 584,
      "eng": 585,
      "ished": 586,
      "atch": 587,
      "No": 588,
      "back": 589,
      "before": 590,
      "there": 591,
      "team": 592,
      "well": 593,
      "15": 594,
      "ma": 595,
      "iel": 596,
      "mus": 597,
      "inn": 598,
      "ven": 599,
      "cho": 600,
      "years": 601,
      "Sh": 602,
      "appe": 603,
      "Con": 604,
      "add": 605,
      "pol": 606,
      "This": 607,
      "ros": 608,
      "Nor": 609,
      "ident": 610,
      "sup": 611,
      "ific": 612,
      "album": 613,
      "publ": 614,
      "reat": 615,
      "ily": 616,
      "owever": 617,
      "je": 618,
      "fer": 619,
      "gu": 620,
      "..": 621,
      "tem": 622,
      "ale": 623,
      "ual": 624,
      "ative": 625,
      "unt": 626,
      "many": 627,
      "point": 628,
      "being": 629,
      "epis": 630,
      "uary": 631,
      "ond": 632,
      "oup": 633,
      "ode": 634,
      "ek": 635,
      "ince": 636,
      "war": 637,
      "velop": 638,
      "ins": 639,
      "At": 640,
      "ury": 641,
      "against": 642,
      "use": 643,
      "number": 644,
      "ped": 645,
      "Be": 646,
      "side": 647,
      "lead": 648,
      "show": 649,
      "ft": 650,
      "charac": 651,
      "After": 652,
      "par": 653,
      "16": 654,
      "sever": 655,
      "loc": 656,
      "12": 657,
      "mem": 658,
      "ash": 659,
      "long": 660,
      "ause": 661,
      "appear": 662,
      "ious": 663,
      "io": 664,
      "rece": 665,
      "became": 666,
      "Brit": 667,
      "including": 668,
      "hn": 669,
      "like": 670,
      "cy": 671,
      "United": 672,
      "serv": 673,
      "ese": 674,
      "Se": 675,
      "both": 676,
      "cri": 677,
      "ise": 678,
      "series": 679,
      "ost": 680,
      "198": 681,
      "found": 682,
      "feat": 683,
      "known": 684,
      "mi": 685,
      "line": 686,
      "igin": 687,
      "cover": 688,
      "did": 689,
      "194": 690,
      "She": 691,
      "rop": 692,
      "ended": 693,
      "eral": 694,
      "az": 695,
      "develop": 696,
      "tri": 697,
      "ley": 698,
      "mill": 699,
      "cer": 700,
      "War": 701,
      "contin": 702,
      "ments": 703,
      "ities": 704,
      "dire": 705,
      "ures": 706,
      "30": 707,
      "down": 708,
      "Eng": 709,
      "run": 710,
      "suc": 711,
      "pop": 712,
      "head": 713,
      "mar": 714,
      "diff": 715,
      "Wor": 716,
      "road": 717,
      "John": 718,
      "For": 719,
      "uch": 720,
      "pass": 721,
      "ird": 722,
      "episode": 723,
      "said": 724,
      "leg": 725,
      "por": 726,
      "ouse": 727,
      "west": 728,
      "ress": 729,
      "mis": 730,
      "che": 731,
      "Ro": 732,
      "could": 733,
      "erson": 734,
      "ah": 735,
      "several": 736,
      "lin": 737,
      "American": 738,
      "Gr": 739,
      "peri": 740,
      "orn": 741,
      "ield": 742,
      "vol": 743,
      "vid": 744,
      "14": 745,
      "origin": 746,
      "called": 747,
      "197": 748,
      "II": 749,
      "ised": 750,
      "comple": 751,
      "rest": 752,
      "196": 753,
      "Br": 754,
      "ually": 755,
      "sign": 756,
      "stem": 757,
      "music": 758,
      "self": 759,
      "bed": 760,
      "cept": 761,
      "remain": 762,
      "return": 763,
      "ste": 764,
      "oper": 765,
      "began": 766,
      "Ger": 767,
      "13": 768,
      "design": 769,
      "try": 770,
      "ting": 771,
      "ank": 772,
      "ople": 773,
      "chool": 774,
      "men": 775,
      "hel": 776,
      "trans": 777,
      "dec": 778,
      "state": 779,
      "aking": 780,
      "early": 781,
      "ci": 782,
      "ball": 783,
      "Tr": 784,
      "released": 785,
      "near": 786,
      "dist": 787,
      "hy": 788,
      "Col": 789,
      "US": 790,
      "ived": 791,
      "descri": 792,
      "une": 793,
      "ject": 794,
      "until": 795,
      "olog": 796,
      "arr": 797,
      "open": 798,
      "success": 799,
      "plac": 800,
      "present": 801,
      "sm": 802,
      "hist": 803,
      "fam": 804,
      "ross": 805,
      "arch": 806,
      "gg": 807,
      "Cl": 808,
      "May": 809,
      "ists": 810,
      "band": 811,
      "offic": 812,
      "val": 813,
      "crit": 814,
      "less": 815,
      "get": 816,
      "overn": 817,
      "50": 818,
      "jor": 819,
      "group": 820,
      "gust": 821,
      "ms": 822,
      "may": 823,
      "vent": 824,
      "along": 825,
      "ves": 826,
      "nam": 827,
      "bers": 828,
      "ower": 829,
      "mil": 830,
      "tow": 831,
      "million": 832,
      "xt": 833,
      "British": 834,
      "bre": 835,
      "cast": 836,
      "order": 837,
      "sim": 838,
      "ving": 839,
      "Sep": 840,
      "enn": 841,
      "met": 842,
      "these": 843,
      "oci": 844,
      "come": 845,
      "ric": 846,
      "ather": 847,
      "ized": 848,
      "fect": 849,
      "ord": 850,
      "attack": 851,
      "cut": 852,
      "Sp": 853,
      "Car": 854,
      "cle": 855,
      "Bl": 856,
      "let": 857,
      "Wil": 858,
      "tember": 859,
      "sk": 860,
      "national": 861,
      "stral": 862,
      "und": 863,
      "September": 864,
      "now": 865,
      "World": 866,
      "August": 867,
      "ured": 868,
      "stor": 869,
      "requ": 870,
      "States": 871,
      "batt": 872,
      "took": 873,
      "Ju": 874,
      "continu": 875,
      "ib": 876,
      "large": 877,
      "same": 878,
      "people": 879,
      "oot": 880,
      "ca": 881,
      "var": 882,
      "character": 883,
      "grap": 884,
      "dep": 885,
      "because": 886,
      "vide": 887,
      "11": 888,
      "light": 889,
      "ism": 890,
      "position": 891,
      "ired": 892,
      "result": 893,
      "around": 894,
      "Ad": 895,
      "Oc": 896,
      "Is": 897,
      "start": 898,
      "km": 899,
      "ctor": 900,
      "class": 901,
      "aving": 902,
      "king": 903,
      "cour": 904,
      "ivers": 905,
      "Jan": 906,
      "oth": 907,
      "aim": 908,
      "pon": 909,
      "la": 910,
      "Austral": 911,
      "mark": 912,
      "formed": 913,
      "vision": 914,
      "support": 915,
      "build": 916,
      "Pl": 917,
      "ants": 918,
      "week": 919,
      "tal": 920,
      "following": 921,
      "north": 922,
      "rist": 923,
      "life": 924,
      "allow": 925,
      "system": 926,
      "six": 927,
      "However": 928,
      "Pr": 929,
      "ison": 930,
      "aft": 931,
      "track": 932,
      "Octo": 933,
      "prom": 934,
      "ork": 935,
      "consid": 936,
      "ys": 937,
      "each": 938,
      "received": 939,
      "ime": 940,
      "urch": 941,
      "ax": 942,
      "will": 943,
      "October": 944,
      "ained": 945,
      "West": 946,
      "ility": 947,
      "ium": 948,
      "place": 949,
      "ling": 950,
      "sol": 951,
      "very": 952,
      "govern": 953,
      "ars": 954,
      "thern": 955,
      "liam": 956,
      "five": 957,
      "just": 958,
      "stand": 959,
      "area": 960,
      "right": 961,
      "wards": 962,
      "century": 963,
      "ask": 964,
      "appro": 965,
      "Sc": 966,
      "They": 967,
      "def": 968,
      "By": 969,
      "ina": 970,
      "match": 971,
      "partic": 972,
      "ately": 973,
      "ple": 974,
      "North": 975,
      "report": 976,
      "city": 977,
      "York": 978,
      "world": 979,
      "rote": 980,
      "public": 981,
      "book": 982,
      "June": 983,
      "top": 984,
      "contro": 985,
      "giv": 986,
      "tle": 987,
      "ger": 988,
      "jo": 989,
      "small": 990,
      "major": 991,
      "field": 992,
      "cording": 993,
      "King": 994,
      "25": 995,
      "ground": 996,
      "July": 997,
      "Can": 998,
      "Man": 999,
      "last": 1000,
      "Nove": 1001,
      "organ": 1002,
      "November": 1003,
      "played": 1004,
      "what": 1005,
      "ner": 1006,
      "atter": 1007,
      "turn": 1008,
      "town": 1009,
      "tit": 1010,
      "Fe": 1011,
      "person": 1012,
      "since": 1013,
      "ional": 1014,
      "lish": 1015,
      "single": 1016,
      "gun": 1017,
      "read": 1018,
      "Apr": 1019,
      "east": 1020,
      "March": 1021,
      "sequ": 1022,
      "ik": 1023,
      "April": 1024,
      "reach": 1025,
      "aged": 1026,
      "ude": 1027,
      "Mc": 1028,
      "Ac": 1029,
      "Co": 1030,
      "arm": 1031,
      "even": 1032,
      "care": 1033,
      "hal": 1034,
      "ural": 1035,
      "pri": 1036,
      "Eu": 1037,
      "ster": 1038,
      "Ge": 1039,
      "won": 1040,
      "name": 1041,
      "bro": 1042,
      "dom": 1043,
      "lit": 1044,
      "power": 1045,
      "idge": 1046,
      "differ": 1047,
      "0s": 1048,
      "Coun": 1049,
      "vious": 1050,
      "ica": 1051,
      "ague": 1052,
      "Indi": 1053,
      "ined": 1054,
      "test": 1055,
      "final": 1056,
      "ref": 1057,
      "left": 1058,
      "ier": 1059,
      "South": 1060,
      "ru": 1061,
      "due": 1062,
      "Me": 1063,
      "Ph": 1064,
      "gre": 1065,
      "udi": 1066,
      "south": 1067,
      "ages": 1068,
      "event": 1069,
      "version": 1070,
      "During": 1071,
      "list": 1072,
      "school": 1073,
      "Dece": 1074,
      "aff": 1075,
      "Ste": 1076,
      "avy": 1077,
      "German": 1078,
      "December": 1079,
      "Ed": 1080,
      "third": 1081,
      "ilt": 1082,
      "water": 1083,
      "ets": 1084,
      "incre": 1085,
      "month": 1086,
      "We": 1087,
      "ision": 1088,
      "moved": 1089,
      "much": 1090,
      "child": 1091,
      "ons": 1092,
      "expl": 1093,
      "another": 1094,
      "ians": 1095,
      "named": 1096,
      "January": 1097,
      "included": 1098,
      "195": 1099,
      "Or": 1100,
      "based": 1101,
      "issu": 1102,
      "All": 1103,
      "claim": 1104,
      "ls": 1105,
      "camp": 1106,
      "wrote": 1107,
      "ales": 1108,
      "193": 1109,
      "ships": 1110,
      "government": 1111,
      "ane": 1112,
      "24": 1113,
      "home": 1114,
      "kill": 1115,
      "chan": 1116,
      "apan": 1117,
      "When": 1118,
      "Pe": 1119,
      "short": 1120,
      "story": 1121,
      "Gu": 1122,
      "bert": 1123,
      "ially": 1124,
      "death": 1125,
      "app": 1126,
      "ute": 1127,
      "ically": 1128,
      "Pro": 1129,
      "ature": 1130,
      "ought": 1131,
      "Japan": 1132,
      "ody": 1133,
      "roy": 1134,
      "ext": 1135,
      "press": 1136,
      "using": 1137,
      "make": 1138,
      "tempt": 1139,
      "oss": 1140,
      "ital": 1141,
      "family": 1142,
      "review": 1143,
      "hand": 1144,
      "flu": 1145,
      "species": 1146,
      "house": 1147,
      "pect": 1148,
      "ution": 1149,
      "ney": 1150,
      "ement": 1151,
      "described": 1152,
      "ards": 1153,
      "rench": 1154,
      "fact": 1155,
      "dam": 1156,
      "previous": 1157,
      "...": 1158,
      "dest": 1159,
      "rown": 1160,
      "Bo": 1161,
      "ene": 1162,
      "Euro": 1163,
      "late": 1164,
      "forman": 1165,
      "beli": 1166,
      "thing": 1167,
      "real": 1168,
      "urther": 1169,
      "ler": 1170,
      "built": 1171,
      "cas": 1172,
      "gener": 1173,
      "ilar": 1174,
      "ness": 1175,
      "ified": 1176,
      "former": 1177,
      "best": 1178,
      "mp": 1179,
      "tak": 1180,
      "oute": 1181,
      "attempt": 1182,
      "placed": 1183,
      "games": 1184,
      "colle": 1185,
      "tract": 1186,
      "Mon": 1187,
      "polit": 1188,
      "ared": 1189,
      "held": 1190,
      "command": 1191,
      "ats": 1192,
      "Par": 1193,
      "put": 1194,
      "ety": 1195,
      "stud": 1196,
      "stit": 1197,
      "ford": 1198,
      "still": 1199,
      "His": 1200,
      "vo": 1201,
      "original": 1202,
      "gram": 1203,
      "those": 1204,
      "lim": 1205,
      "den": 1206,
      "constru": 1207,
      "addition": 1208,
      "augh": 1209,
      "Febr": 1210,
      "February": 1211,
      "gy": 1212,
      "fel": 1213,
      "next": 1214,
      "ently": 1215,
      "effect": 1216,
      "Christ": 1217,
      "ator": 1218,
      "22": 1219,
      "mid": 1220,
      "fall": 1221,
      "thor": 1222,
      "There": 1223,
      "fri": 1224,
      "performan": 1225,
      "100": 1226,
      "ham": 1227,
      "members": 1228,
      "sent": 1229,
      "rican": 1230,
      "ences": 1231,
      "ctions": 1232,
      "van": 1233,
      "Gen": 1234,
      "inc": 1235,
      "National": 1236,
      "ush": 1237,
      "mit": 1238,
      "Li": 1239,
      "Europe": 1240,
      "21": 1241,
      "bur": 1242,
      "iversity": 1243,
      "days": 1244,
      "period": 1245,
      "within": 1246,
      "ched": 1247,
      "ines": 1248,
      "French": 1249,
      "role": 1250,
      "release": 1251,
      "ze": 1252,
      "init": 1253,
      "although": 1254,
      "move": 1255,
      "wind": 1256,
      "video": 1257,
      "hip": 1258,
      "say": 1259,
      "rank": 1260,
      "half": 1261,
      "2010": 1262,
      "23": 1263,
      "na": 1264,
      "estab": 1265,
      "Her": 1266,
      "came": 1267,
      "Ser": 1268,
      "arri": 1269,
      "ps": 1270,
      "And": 1271,
      "ink": 1272,
      "wom": 1273,
      "William": 1274,
      "ropical": 1275,
      "continued": 1276,
      "law": 1277,
      "ali": 1278,
      "27": 1279,
      "craft": 1280,
      "aining": 1281,
      "ris": 1282,
      "ning": 1283,
      "ains": 1284,
      "hum": 1285,
      "uss": 1286,
      "round": 1287,
      "ulation": 1288,
      "ribut": 1289,
      "ones": 1290,
      "win": 1291,
      "sou": 1292,
      "posed": 1293,
      "however": 1294,
      "ending": 1295,
      "sen": 1296,
      "itary": 1297,
      "2008": 1298,
      "28": 1299,
      "fac": 1300,
      "ral": 1301,
      "inning": 1302,
      "uc": 1303,
      "2009": 1304,
      "Geor": 1305,
      "often": 1306,
      "you": 1307,
      "ried": 1308,
      "few": 1309,
      "rad": 1310,
      "ister": 1311,
      "imes": 1312,
      "equ": 1313,
      "mag": 1314,
      "Bar": 1315,
      "stri": 1316,
      "ampion": 1317,
      "take": 1318,
      "ix": 1319,
      "wood": 1320,
      "friend": 1321,
      "Des": 1322,
      "local": 1323,
      "Ear": 1324,
      "player": 1325,
      "2011": 1326,
      "Air": 1327,
      "similar": 1328,
      "26": 1329,
      "40": 1330,
      "among": 1331,
      "beg": 1332,
      "Inter": 1333,
      "production": 1334,
      "Mich": 1335,
      "ior": 1336,
      "ony": 1337,
      "force": 1338,
      "pite": 1339,
      "went": 1340,
      "different": 1341,
      "atic": 1342,
      "ove": 1343,
      "Char": 1344,
      "chang": 1345,
      "ery": 1346,
      "mission": 1347,
      "ides": 1348,
      "possi": 1349,
      "England": 1350,
      "storm": 1351,
      "One": 1352,
      "strong": 1353,
      "further": 1354,
      "night": 1355,
      "Har": 1356,
      "Mus": 1357,
      "post": 1358,
      "sty": 1359,
      "considered": 1360,
      "ae": 1361,
      "company": 1362,
      "Dav": 1363,
      "level": 1364,
      "served": 1365,
      "fire": 1366,
      "ices": 1367,
      "aver": 1368,
      "2007": 1369,
      "ided": 1370,
      "career": 1371,
      "uck": 1372,
      "ung": 1373,
      "ai": 1374,
      "ively": 1375,
      "provid": 1376,
      "City": 1377,
      "East": 1378,
      "having": 1379,
      "fort": 1380,
      "Park": 1381,
      "action": 1382,
      "ged": 1383,
      "ient": 1384,
      "commun": 1385,
      "exp": 1386,
      "trad": 1387,
      "Fr": 1388,
      "tele": 1389,
      "English": 1390,
      "que": 1391,
      "fron": 1392,
      "enter": 1393,
      "ops": 1394,
      "So": 1395,
      "club": 1396,
      "every": 1397,
      "ives": 1398,
      "hold": 1399,
      "without": 1400,
      "history": 1401,
      "refer": 1402,
      "Although": 1403,
      "lands": 1404,
      "studi": 1405,
      "wide": 1406,
      "graph": 1407,
      "written": 1408,
      "Scot": 1409,
      "2012": 1410,
      "stead": 1411,
      "become": 1412,
      "board": 1413,
      "29": 1414,
      "reet": 1415,
      "respon": 1416,
      "Lond": 1417,
      "influ": 1418,
      "Ang": 1419,
      "London": 1420,
      "foot": 1421,
      "sound": 1422,
      "Ex": 1423,
      "scor": 1424,
      "With": 1425,
      "ggest": 1426,
      "iss": 1427,
      "River": 1428,
      "Mo": 1429,
      "Batt": 1430,
      "invol": 1431,
      "suggest": 1432,
      "ington": 1433,
      "190": 1434,
      "bor": 1435,
      "tro": 1436,
      "Ne": 1437,
      "given": 1438,
      "bus": 1439,
      "prof": 1440,
      "announ": 1441,
      "divid": 1442,
      "oung": 1443,
      "mand": 1444,
      "key": 1445,
      "ds": 1446,
      "Te": 1447,
      "want": 1448,
      "Sy": 1449,
      "cial": 1450,
      "To": 1451,
      "cop": 1452,
      "comb": 1453,
      "ug": 1454,
      "building": 1455,
      "change": 1456,
      "High": 1457,
      "Canad": 1458,
      "imp": 1459,
      "Fl": 1460,
      "fr": 1461,
      "iment": 1462,
      "father": 1463,
      "gave": 1464,
      "successful": 1465,
      "common": 1466,
      "published": 1467,
      "close": 1468,
      "Pol": 1469,
      "University": 1470,
      "import": 1471,
      "stated": 1472,
      "seven": 1473,
      "sure": 1474,
      "good": 1475,
      "gn": 1476,
      "never": 1477,
      "While": 1478,
      "ailed": 1479,
      "returned": 1480,
      "anim": 1481,
      "beh": 1482,
      "omin": 1483,
      "produced": 1484,
      "total": 1485,
      "author": 1486,
      "face": 1487,
      "prote": 1488,
      "country": 1489,
      "del": 1490,
      "bar": 1491,
      "eved": 1492,
      "away": 1493,
      "see": 1494,
      "hour": 1495,
      "aren": 1496,
      "quad": 1497,
      "Cor": 1498,
      "sit": 1499,
      "popular": 1500,
      "tour": 1501,
      "omet": 1502,
      "aur": 1503,
      "ably": 1504,
      "fun": 1505,
      "reported": 1506,
      "Div": 1507,
      "Dr": 1508,
      "dri": 1509,
      "lost": 1510,
      "2006": 1511,
      "program": 1512,
      "capt": 1513,
      "chn": 1514,
      "compos": 1515,
      "great": 1516,
      "aign": 1517,
      "ways": 1518,
      "vest": 1519,
      "particular": 1520,
      "ama": 1521,
      "draw": 1522,
      "ks": 1523,
      "making": 1524,
      "rent": 1525,
      "vers": 1526,
      "include": 1527,
      "ened": 1528,
      "how": 1529,
      "According": 1530,
      "decl": 1531,
      "soci": 1532,
      "interest": 1533,
      "struct": 1534,
      "ology": 1535,
      "recorded": 1536,
      "indu": 1537,
      "covered": 1538,
      "ox": 1539,
      "fle": 1540,
      "forces": 1541,
      "need": 1542,
      "vict": 1543,
      "direct": 1544,
      "body": 1545,
      "urrican": 1546,
      "itions": 1547,
      "Am": 1548,
      "site": 1549,
      "Phil": 1550,
      "should": 1551,
      "plan": 1552,
      "voc": 1553,
      "ploy": 1554,
      "quar": 1555,
      "service": 1556,
      "ument": 1557,
      "suff": 1558,
      "moder": 1559,
      "performance": 1560,
      "died": 1561,
      "teen": 1562,
      "times": 1563,
      "net": 1564,
      "These": 1565,
      "grad": 1566,
      "ana": 1567,
      "coming": 1568,
      "fan": 1569,
      "rock": 1570,
      "pen": 1571,
      "ned": 1572,
      "Roy": 1573,
      "aircraft": 1574,
      "sum": 1575,
      "himself": 1576,
      "2013": 1577,
      "tell": 1578,
      "intro": 1579,
      "military": 1580,
      "flo": 1581,
      "pur": 1582,
      "iness": 1583,
      "Jack": 1584,
      "depend": 1585,
      "Australia": 1586,
      "room": 1587,
      "battle": 1588,
      "bas": 1589,
      "agre": 1590,
      "aul": 1591,
      "Pres": 1592,
      "songs": 1593,
      "aster": 1594,
      "elect": 1595,
      "Min": 1596,
      "member": 1597,
      "Rep": 1598,
      "cing": 1599,
      "itch": 1600,
      "gl": 1601,
      "critic": 1602,
      "development": 1603,
      "General": 1604,
      "BC": 1605,
      "State": 1606,
      "xim": 1607,
      "search": 1608,
      "front": 1609,
      "alth": 1610,
      "represent": 1611,
      "ael": 1612,
      "sw": 1613,
      "189": 1614,
      "itive": 1615,
      "look": 1616,
      "ges": 1617,
      "60": 1618,
      "acy": 1619,
      "sl": 1620,
      "akes": 1621,
      "histor": 1622,
      "James": 1623,
      "developed": 1624,
      "istr": 1625,
      "vir": 1626,
      "Rom": 1627,
      "medi": 1628,
      "control": 1629,
      "introdu": 1630,
      "destroy": 1631,
      "star": 1632,
      "nal": 1633,
      "children": 1634,
      "Gre": 1635,
      "remained": 1636,
      "Sm": 1637,
      "ption": 1638,
      "range": 1639,
      "fav": 1640,
      "characters": 1641,
      "Army": 1642,
      "chart": 1643,
      "title": 1644,
      "ored": 1645,
      "rew": 1646,
      "mm": 1647,
      "clear": 1648,
      "months": 1649,
      "Su": 1650,
      "ey": 1651,
      "ising": 1652,
      "ues": 1653,
      "ither": 1654,
      "rap": 1655,
      "ille": 1656,
      "ense": 1657,
      "campaign": 1658,
      "occur": 1659,
      "ability": 1660,
      "League": 1661,
      "cult": 1662,
      "urricane": 1663,
      "cir": 1664,
      "taken": 1665,
      "omb": 1666,
      "eight": 1667,
      "gether": 1668,
      "compet": 1669,
      "felt": 1670,
      "ots": 1671,
      "tropical": 1672,
      "signific": 1673,
      "writing": 1674,
      "across": 1675,
      "seen": 1676,
      "project": 1677,
      "Cap": 1678,
      "tar": 1679,
      "pra": 1680,
      "ering": 1681,
      "bridge": 1682,
      "station": 1683,
      "gest": 1684,
      "too": 1685,
      "created": 1686,
      "Tw": 1687,
      "America": 1688,
      "appeared": 1689,
      "announced": 1690,
      "noted": 1691,
      "alter": 1692,
      "Division": 1693,
      "Sw": 1694,
      "George": 1695,
      "reached": 1696,
      "appoint": 1697,
      "cil": 1698,
      "Hen": 1699,
      "hor": 1700,
      "gin": 1701,
      "experi": 1702,
      "activ": 1703,
      "County": 1704,
      "uses": 1705,
      "works": 1706,
      "areas": 1707,
      "ov": 1708,
      "television": 1709,
      "saw": 1710,
      "Per": 1711,
      "Ma": 1712,
      "fight": 1713,
      "2005": 1714,
      "Road": 1715,
      "Japanese": 1716,
      "lect": 1717,
      "prim": 1718,
      "cost": 1719,
      "performed": 1720,
      "ream": 1721,
      "various": 1722,
      "political": 1723,
      "break": 1724,
      "Street": 1725,
      "complete": 1726,
      "followed": 1727,
      "har": 1728,
      "full": 1729,
      "iting": 1730,
      "ality": 1731,
      "race": 1732,
      "players": 1733,
      "ago": 1734,
      "trave": 1735,
      "style": 1736,
      "2014": 1737,
      "inv": 1738,
      "mb": 1739,
      "mot": 1740,
      "arded": 1741,
      "abor": 1742,
      "black": 1743,
      "process": 1744,
      "mph": 1745,
      "mix": 1746,
      "non": 1747,
      "Mad": 1748,
      "antic": 1749,
      "wall": 1750,
      "oto": 1751,
      "points": 1752,
      "killed": 1753,
      "ief": 1754,
      "ization": 1755,
      "help": 1756,
      "hit": 1757,
      "bet": 1758,
      "bel": 1759,
      "crew": 1760,
      "lines": 1761,
      "live": 1762,
      "lished": 1763,
      "sess": 1764,
      "throughout": 1765,
      "sex": 1766,
      "techn": 1767,
      "stat": 1768,
      "together": 1769,
      "formation": 1770,
      "cru": 1771,
      "debut": 1772,
      "little": 1773,
      "El": 1774,
      "fem": 1775,
      "established": 1776,
      "significant": 1777,
      "meet": 1778,
      "broad": 1779,
      "tra": 1780,
      "Thom": 1781,
      "ull": 1782,
      "icult": 1783,
      "coast": 1784,
      "thought": 1785,
      "construction": 1786,
      "aval": 1787,
      "far": 1788,
      "find": 1789,
      "Reg": 1790,
      "pair": 1791,
      "miles": 1792,
      "earli": 1793,
      "does": 1794,
      "enced": 1795,
      "impro": 1796,
      "born": 1797,
      "David": 1798,
      "odes": 1799,
      "got": 1800,
      "Michael": 1801,
      "pain": 1802,
      "entire": 1803,
      "ission": 1804,
      "Australian": 1805,
      "stage": 1806,
      "rain": 1807,
      "ators": 1808,
      "young": 1809,
      "Rich": 1810,
      "relation": 1811,
      "San": 1812,
      "Med": 1813,
      "special": 1814,
      "women": 1815,
      "conom": 1816,
      "route": 1817,
      "Qu": 1818,
      "conne": 1819,
      "decided": 1820,
      "Bill": 1821,
      "acc": 1822,
      "You": 1823,
      "Part": 1824,
      "ivil": 1825,
      "case": 1826,
      "ible": 1827,
      "ances": 1828,
      "80": 1829,
      "caused": 1830,
      "started": 1831,
      "general": 1832,
      "ho": 1833,
      "sell": 1834,
      "playing": 1835,
      "features": 1836,
      "Fin": 1837,
      "white": 1838,
      "grow": 1839,
      "House": 1840,
      "aves": 1841,
      "once": 1842,
      "eventually": 1843,
      "tee": 1844,
      "pat": 1845,
      "ample": 1846,
      "isted": 1847,
      "manag": 1848,
      "Sch": 1849,
      "host": 1850,
      "sold": 1851,
      "stant": 1852,
      "Lu": 1853,
      "feet": 1854,
      "Royal": 1855,
      "added": 1856,
      "opened": 1857,
      "ald": 1858,
      "modern": 1859,
      "located": 1860,
      "termin": 1861,
      "My": 1862,
      "Hist": 1863,
      "itar": 1864,
      "idence": 1865,
      "inj": 1866,
      "base": 1867,
      "ife": 1868,
      "quadron": 1869,
      "ampionship": 1870,
      "vari": 1871,
      "Some": 1872,
      "adv": 1873,
      "disc": 1874,
      "Ital": 1875,
      "instead": 1876,
      "Po": 1877,
      "ensive": 1878,
      "Don": 1879,
      "Mal": 1880,
      "yn": 1881,
      "clos": 1882,
      "Black": 1883,
      "peak": 1884,
      "hon": 1885,
      "cret": 1886,
      "Music": 1887,
      "important": 1888,
      "current": 1889,
      "utes": 1890,
      "section": 1891,
      "theast": 1892,
      "Ber": 1893,
      "ata": 1894,
      "Comp": 1895,
      "Bel": 1896,
      "cross": 1897,
      "ocial": 1898,
      "moun": 1899,
      "urb": 1900,
      "completed": 1901,
      "possible": 1902,
      "ends": 1903,
      "ination": 1904,
      "els": 1905,
      "ring": 1906,
      "worked": 1907,
      "oney": 1908,
      "cogn": 1909,
      "ying": 1910,
      "don": 1911,
      "others": 1912,
      "cause": 1913,
      "era": 1914,
      "free": 1915,
      "population": 1916,
      "2004": 1917,
      "pred": 1918,
      "audi": 1919,
      "mater": 1920,
      "Hol": 1921,
      "fig": 1922,
      "lled": 1923,
      "pie": 1924,
      "leading": 1925,
      "tre": 1926,
      "typ": 1927,
      "quest": 1928,
      "31": 1929,
      "oted": 1930,
      "Ab": 1931,
      "loss": 1932,
      "rather": 1933,
      "church": 1934,
      "guns": 1935,
      "behind": 1936,
      "dle": 1937,
      "scri": 1938,
      "ches": 1939,
      "Robert": 1940,
      "upon": 1941,
      "ceed": 1942,
      "pract": 1943,
      "Cr": 1944,
      "70": 1945,
      "forced": 1946,
      "lie": 1947,
      "comment": 1948,
      "lack": 1949,
      "alk": 1950,
      "mother": 1951,
      "invest": 1952,
      "France": 1953,
      "fif": 1954,
      "ino": 1955,
      "amb": 1956,
      "Cent": 1957,
      "2015": 1958,
      "ays": 1959,
      "know": 1960,
      "vill": 1961,
      "heavy": 1962,
      "NA": 1963,
      "ming": 1964,
      "Act": 1965,
      "ecut": 1966,
      "party": 1967,
      "School": 1968,
      "respect": 1969,
      "novel": 1970,
      "subsequ": 1971,
      "Russ": 1972,
      "proble": 1973,
      "35": 1974,
      "Vi": 1975,
      "reve": 1976,
      "accept": 1977,
      "difficult": 1978,
      "Wash": 1979,
      "human": 1980,
      "working": 1981,
      "hard": 1982,
      "separ": 1983,
      "associ": 1984,
      "joined": 1985,
      "weeks": 1986,
      "Mor": 1987,
      "term": 1988,
      "Ham": 1989,
      "Henry": 1990,
      "coll": 1991,
      "scene": 1992,
      "originally": 1993,
      "avail": 1994,
      "Ale": 1995,
      "Em": 1996,
      "asing": 1997,
      "ories": 1998,
      "angu": 1999,
      "pression": 2000,
      "scored": 2001,
      "almost": 2002,
      "inst": 2003,
      "188": 2004,
      "damage": 2005,
      "ties": 2006,
      "spir": 2007,
      "gar": 2008,
      "Battle": 2009,
      "mass": 2010,
      "allowed": 2011,
      "ids": 2012,
      "ival": 2013,
      "fourth": 2014,
      "Best": 2015,
      "Spe": 2016,
      "ament": 2017,
      "Red": 2018,
      "igned": 2019,
      "approach": 2020,
      "ready": 2021,
      "provided": 2022,
      "Vir": 2023,
      "engine": 2024,
      "Fir": 2025,
      "goal": 2026,
      "drop": 2027,
      "lower": 2028,
      "ope": 2029,
      "Mil": 2030,
      "Port": 2031,
      "claimed": 2032,
      "super": 2033,
      "TV": 2034,
      "cup": 2035,
      "wanted": 2036,
      "regular": 2037,
      "Dan": 2038,
      "Paul": 2039,
      "employ": 2040,
      "500": 2041,
      "cell": 2042,
      "Mac": 2043,
      "brought": 2044,
      "Que": 2045,
      "nat": 2046,
      "aps": 2047,
      "tradition": 2048,
      "ula": 2049,
      "Cour": 2050,
      "Gl": 2051,
      "compan": 2052,
      "Fran": 2053,
      "bal": 2054,
      "individ": 2055,
      "featured": 2056,
      "President": 2057,
      "least": 2058,
      "laun": 2059,
      "wife": 2060,
      "hest": 2061,
      "econom": 2062,
      "average": 2063,
      "soon": 2064,
      "passed": 2065,
      "business": 2066,
      "cred": 2067,
      "towards": 2068,
      "region": 2069,
      "reek": 2070,
      "runs": 2071,
      "tempor": 2072,
      "aut": 2073,
      "Washington": 2074,
      "recogn": 2075,
      "Play": 2076,
      "court": 2077,
      "critics": 2078,
      "azine": 2079,
      "western": 2080,
      "cts": 2081,
      "redu": 2082,
      "186": 2083,
      "quick": 2084,
      "counter": 2085,
      "estim": 2086,
      "office": 2087,
      "either": 2088,
      "contract": 2089,
      "profess": 2090,
      "Res": 2091,
      "sour": 2092,
      "forms": 2093,
      "plann": 2094,
      "defe": 2095,
      "emy": 2096,
      "rail": 2097,
      "uel": 2098,
      "leng": 2099,
      "example": 2100,
      "Je": 2101,
      "uk": 2102,
      "Angel": 2103,
      "nomin": 2104,
      "nia": 2105,
      "Other": 2106,
      "icated": 2107,
      "foc": 2108,
      "mult": 2109,
      "troops": 2110,
      "dou": 2111,
      "rid": 2112,
      "finished": 2113,
      "ades": 2114,
      "ico": 2115,
      "army": 2116,
      "scre": 2117,
      "hom": 2118,
      "asy": 2119,
      "2003": 2120,
      "Despite": 2121,
      "concl": 2122,
      "rul": 2123,
      "mal": 2124,
      "shot": 2125,
      "unk": 2126,
      "Follow": 2127,
      "Game": 2128,
      "circ": 2129,
      "generally": 2130,
      "mun": 2131,
      "ials": 2132,
      "ills": 2133,
      "proper": 2134,
      "condu": 2135,
      "whe": 2136,
      "det": 2137,
      "fre": 2138,
      "aper": 2139,
      "bes": 2140,
      "ply": 2141,
      "osp": 2142,
      "cycl": 2143,
      "sea": 2144,
      "anti": 2145,
      "Colle": 2146,
      "fed": 2147,
      "compl": 2148,
      "length": 2149,
      "events": 2150,
      "cert": 2151,
      "believed": 2152,
      "Cup": 2153,
      "keep": 2154,
      "Star": 2155,
      "First": 2156,
      "ha": 2157,
      "particip": 2158,
      "aled": 2159,
      "Following": 2160,
      "parts": 2161,
      "Mary": 2162,
      "tic": 2163,
      "fund": 2164,
      "scen": 2165,
      "ping": 2166,
      "ius": 2167,
      "ention": 2168,
      "victory": 2169,
      "replaced": 2170,
      "cially": 2171,
      "bound": 2172,
      "nine": 2173,
      "45": 2174,
      "tor": 2175,
      "designed": 2176,
      "iction": 2177,
      "available": 2178,
      "island": 2179,
      "Dep": 2180,
      "75": 2181,
      "ological": 2182,
      "official": 2183,
      "itor": 2184,
      "Lou": 2185,
      "sele": 2186,
      "hours": 2187,
      "evol": 2188,
      "European": 2189,
      "conc": 2190,
      "involved": 2191,
      "president": 2192,
      "Two": 2193,
      "hab": 2194,
      "opening": 2195,
      "Mer": 2196,
      "prison": 2197,
      "Sun": 2198,
      "stop": 2199,
      "bri": 2200,
      "ential": 2201,
      "ports": 2202,
      "ta": 2203,
      "asked": 2204,
      "hous": 2205,
      "certain": 2206,
      "istic": 2207,
      "tel": 2208,
      "turned": 2209,
      "stone": 2210,
      "execut": 2211,
      "comes": 2212,
      "erous": 2213,
      "cal": 2214,
      "exist": 2215,
      "director": 2216,
      "Roman": 2217,
      "ville": 2218,
      "saying": 2219,
      "threat": 2220,
      "2000": 2221,
      "commit": 2222,
      "appearance": 2223,
      "park": 2224,
      "love": 2225,
      "nd": 2226,
      "ighest": 2227,
      "watch": 2228,
      "Mid": 2229,
      "minutes": 2230,
      "writer": 2231,
      "ount": 2232,
      "largest": 2233,
      "highway": 2234,
      "sil": 2235,
      "southern": 2236,
      "Route": 2237,
      "Scott": 2238,
      "taking": 2239,
      "mir": 2240,
      "ize": 2241,
      "commer": 2242,
      "ishing": 2243,
      "Val": 2244,
      "ublic": 2245,
      "going": 2246,
      "survi": 2247,
      "highest": 2248,
      "From": 2249,
      "2001": 2250,
      "earlier": 2251,
      "Atl": 2252,
      "Sing": 2253,
      "Do": 2254,
      "initially": 2255,
      "percent": 2256,
      "vice": 2257,
      "particularly": 2258,
      "training": 2259,
      "White": 2260,
      "ership": 2261,
      "bit": 2262,
      "lear": 2263,
      "Mag": 2264,
      "Mart": 2265,
      "lying": 2266,
      "90": 2267,
      "graphy": 2268,
      "educ": 2269,
      "box": 2270,
      "must": 2271,
      "Church": 2272,
      "assist": 2273,
      "ordered": 2274,
      "pot": 2275,
      "issue": 2276,
      "Charles": 2277,
      "Kingdom": 2278,
      "Navy": 2279,
      "aj": 2280,
      "signed": 2281,
      "thus": 2282,
      "hib": 2283,
      "ateg": 2284,
      "pond": 2285,
      "pers": 2286,
      "Off": 2287,
      "Hall": 2288,
      "Thomas": 2289,
      "weak": 2290,
      "social": 2291,
      "central": 2292,
      "tries": 2293,
      "za": 2294,
      "uture": 2295,
      "ency": 2296,
      "ape": 2297,
      "speed": 2298,
      "maintain": 2299,
      "studio": 2300,
      "praised": 2301,
      "bow": 2302,
      "Dis": 2303,
      "pected": 2304,
      "alifor": 2305,
      "International": 2306,
      "bill": 2307,
      "ification": 2308,
      "Smith": 2309,
      "But": 2310,
      "date": 2311,
      "langu": 2312,
      "gress": 2313,
      "ception": 2314,
      "reason": 2315,
      "Virgin": 2316,
      "Cam": 2317,
      "increased": 2318,
      "deal": 2319,
      "AA": 2320,
      "past": 2321,
      "northern": 2322,
      "hurricane": 2323,
      "units": 2324,
      "research": 2325,
      "Pal": 2326,
      "2002": 2327,
      "rac": 2328,
      "vin": 2329,
      "relig": 2330,
      "via": 2331,
      "Bay": 2332,
      "type": 2333,
      "stry": 2334,
      "depart": 2335,
      "meas": 2336,
      "Canada": 2337,
      "pay": 2338,
      "deli": 2339,
      "Bur": 2340,
      "Califor": 2341,
      "commission": 2342,
      "agon": 2343,
      "Pri": 2344,
      "rian": 2345,
      "Sam": 2346,
      "hol": 2347,
      "Rock": 2348,
      "Bro": 2349,
      "Ho": 2350,
      "mean": 2351,
      "immedi": 2352,
      "omer": 2353,
      "ayed": 2354,
      "daugh": 2355,
      "acqu": 2356,
      "Du": 2357,
      "Sen": 2358,
      "ilities": 2359,
      "relationship": 2360,
      "imin": 2361,
      "fantry": 2362,
      "Peter": 2363,
      "Richard": 2364,
      "pressed": 2365,
      "bomb": 2366,
      "independ": 2367,
      "Alex": 2368,
      "Mi": 2369,
      "usually": 2370,
      "told": 2371,
      "better": 2372,
      "Indian": 2373,
      "Sal": 2374,
      "California": 2375,
      "icket": 2376,
      "sat": 2377,
      "Sk": 2378,
      "enough": 2379,
      "nel": 2380,
      "states": 2381,
      "winds": 2382,
      "Union": 2383,
      "Ben": 2384,
      "aring": 2385,
      "sed": 2386,
      "rup": 2387,
      "positive": 2388,
      "jour": 2389,
      "God": 2390,
      "Court": 2391,
      "Brown": 2392,
      "sal": 2393,
      "Island": 2394,
      "concern": 2395,
      "ston": 2396,
      "spent": 2397,
      "ume": 2398,
      "phys": 2399,
      "according": 2400,
      "ference": 2401,
      "appointed": 2402,
      "Tom": 2403,
      "above": 2404,
      "icle": 2405,
      "arily": 2406,
      "films": 2407,
      "feel": 2408,
      "tion": 2409,
      "Ap": 2410,
      "outside": 2411,
      "Str": 2412,
      "Great": 2413,
      "Cong": 2414,
      "accoun": 2415,
      "football": 2416,
      "bird": 2417,
      "anks": 2418,
      "Award": 2419,
      "ener": 2420,
      "quare": 2421,
      "lay": 2422,
      "previously": 2423,
      "recording": 2424,
      "active": 2425,
      "mur": 2426,
      "responsi": 2427,
      "standing": 2428,
      "Associ": 2429,
      "contribut": 2430,
      "load": 2431,
      "usion": 2432,
      "defin": 2433,
      "access": 2434,
      "failed": 2435,
      "Pre": 2436,
      "sey": 2437,
      "Company": 2438,
      "required": 2439,
      "elements": 2440,
      "ems": 2441,
      "reng": 2442,
      "occup": 2443,
      "187": 2444,
      "NY": 2445,
      "ken": 2446,
      "treat": 2447,
      "Ter": 2448,
      "overnor": 2449,
      "gir": 2450,
      "India": 2451,
      "Vict": 2452,
      "Germany": 2453,
      "reviews": 2454,
      "viol": 2455,
      "ga": 2456,
      "directed": 2457,
      "Sou": 2458,
      "ida": 2459,
      "atin": 2460,
      "Mark": 2461,
      "interview": 2462,
      "alion": 2463,
      "word": 2464,
      "ique": 2465,
      "ometimes": 2466,
      "III": 2467,
      "Christian": 2468,
      "itself": 2469,
      "give": 2470,
      "groups": 2471,
      "vert": 2472,
      "reme": 2473,
      "aters": 2474,
      "inner": 2475,
      "score": 2476,
      "despite": 2477,
      "respond": 2478,
      "bour": 2479,
      "thod": 2480,
      "Frank": 2481,
      "Times": 2482,
      "Sim": 2483,
      "prob": 2484,
      "UK": 2485,
      "La": 2486,
      "onto": 2487,
      "perform": 2488,
      "ns": 2489,
      "Cast": 2490,
      "Ke": 2491,
      "idea": 2492,
      "space": 2493,
      "beginning": 2494,
      "introduced": 2495,
      "ministr": 2496,
      "College": 2497,
      "script": 2498,
      "soldi": 2499,
      "happ": 2500,
      "bi": 2501,
      "frequ": 2502,
      "streng": 2503,
      "ept": 2504,
      "flight": 2505,
      "whose": 2506,
      "sus": 2507,
      "ication": 2508,
      "priv": 2509,
      "igan": 2510,
      "block": 2511,
      "transfer": 2512,
      "Jer": 2513,
      "anal": 2514,
      "ening": 2515,
      "Gold": 2516,
      "Western": 2517,
      "league": 2518,
      "Tri": 2519,
      "Mex": 2520,
      "edy": 2521,
      "cul": 2522,
      "tom": 2523,
      "ases": 2524,
      "prevent": 2525,
      "brother": 2526,
      "changes": 2527,
      "recent": 2528,
      "Sovi": 2529,
      "pil": 2530,
      "gold": 2531,
      "Hill": 2532,
      "conf": 2533,
      "election": 2534,
      "defeated": 2535,
      "Bu": 2536,
      "additional": 2537,
      "ault": 2538,
      "jud": 2539,
      "sch": 2540,
      "Grand": 2541,
      "appl": 2542,
      "future": 2543,
      "berg": 2544,
      "ara": 2545,
      "whom": 2546,
      "poor": 2547,
      "international": 2548,
      "Met": 2549,
      "photo": 2550,
      "Span": 2551,
      "Awards": 2552,
      "native": 2553,
      "exten": 2554,
      "structure": 2555,
      "corpor": 2556,
      "evidence": 2557,
      "changed": 2558,
      "sem": 2559,
      "argu": 2560,
      "33": 2561,
      "quickly": 2562,
      "center": 2563,
      "market": 2564,
      "specific": 2565,
      "Force": 2566,
      "radio": 2567,
      "ben": 2568,
      "already": 2569,
      "umb": 2570,
      "That": 2571,
      "Day": 2572,
      "situ": 2573,
      "atory": 2574,
      "material": 2575,
      "aint": 2576,
      "river": 2577,
      "Most": 2578,
      "coach": 2579,
      "emp": 2580,
      "pet": 2581,
      "dies": 2582,
      "ctive": 2583,
      "agreed": 2584,
      "lies": 2585,
      "itz": 2586,
      "arrived": 2587,
      "civil": 2588,
      "study": 2589,
      "staff": 2590,
      "Britain": 2591,
      "likely": 2592,
      "Mill": 2593,
      "slow": 2594,
      "useum": 2595,
      "decision": 2596,
      "lyr": 2597,
      "Film": 2598,
      "spr": 2599,
      "course": 2600,
      "subject": 2601,
      "hop": 2602,
      "money": 2603,
      "female": 2604,
      "ded": 2605,
      "Chin": 2606,
      "espe": 2607,
      "might": 2608,
      "sometimes": 2609,
      "limited": 2610,
      "surface": 2611,
      "fleet": 2612,
      "pan": 2613,
      "response": 2614,
      "food": 2615,
      "names": 2616,
      "icted": 2617,
      "magazine": 2618,
      "Pac": 2619,
      "actions": 2620,
      "especially": 2621,
      "nation": 2622,
      "flow": 2623,
      "36": 2624,
      "Later": 2625,
      "liament": 2626,
      "Victor": 2627,
      "estimated": 2628,
      "broadcast": 2629,
      "flood": 2630,
      "Championship": 2631,
      "carried": 2632,
      "bell": 2633,
      "Over": 2634,
      "consider": 2635,
      "ples": 2636,
      "worth": 2637,
      "Pat": 2638,
      "ror": 2639,
      "shows": 2640,
      "ena": 2641,
      "paren": 2642,
      "community": 2643,
      "guitar": 2644,
      "bot": 2645,
      "uded": 2646,
      "listed": 2647,
      "rate": 2648,
      "plant": 2649,
      "musical": 2650,
      "prepar": 2651,
      "text": 2652,
      "ises": 2653,
      "size": 2654,
      "scenes": 2655,
      "1999": 2656,
      "isl": 2657,
      "arrison": 2658,
      "related": 2659,
      "remaining": 2660,
      "yl": 2661,
      "37": 2662,
      "eastern": 2663,
      "minor": 2664,
      "Los": 2665,
      "emer": 2666,
      "venue": 2667,
      "personal": 2668,
      "natural": 2669,
      "becoming": 2670,
      "Early": 2671,
      "Virginia": 2672,
      "larger": 2673,
      "division": 2674,
      "media": 2675,
      "latter": 2676,
      "entered": 2677,
      "object": 2678,
      "favor": 2679,
      "yard": 2680,
      "rights": 2681,
      "suit": 2682,
      "doc": 2683,
      "police": 2684,
      "summer": 2685,
      "married": 2686,
      "suggested": 2687,
      "pressure": 2688,
      "approxim": 2689,
      "teams": 2690,
      "brief": 2691,
      "liter": 2692,
      "arrang": 2693,
      "Just": 2694,
      "burg": 2695,
      "adap": 2696,
      "iter": 2697,
      "mor": 2698,
      "Year": 2699,
      "daughter": 2700,
      "tax": 2701,
      "investig": 2702,
      "exper": 2703,
      "establish": 2704,
      "Jackson": 2705,
      "surround": 2706,
      "students": 2707,
      "ari": 2708,
      "kil": 2709,
      "Second": 2710,
      "Ty": 2711,
      "temporary": 2712,
      "effects": 2713,
      "Chic": 2714,
      "Tex": 2715,
      "tons": 2716,
      "woman": 2717,
      "38": 2718,
      "prior": 2719,
      "episodes": 2720,
      "If": 2721,
      "Flor": 2722,
      "Fle": 2723,
      "fit": 2724,
      "Cal": 2725,
      "Tour": 2726,
      "clim": 2727,
      "Oly": 2728,
      "ires": 2729,
      "Louis": 2730,
      "avo": 2731,
      "sett": 2732,
      "irth": 2733,
      "winning": 2734,
      "32": 2735,
      "49": 2736,
      "mode": 2737,
      "Green": 2738,
      "leaving": 2739,
      "Olymp": 2740,
      "destroyed": 2741,
      "viron": 2742,
      "selves": 2743,
      "ny": 2744,
      "tracks": 2745,
      "sons": 2746,
      "Lord": 2747,
      "join": 2748,
      "equip": 2749,
      "fail": 2750,
      "vie": 2751,
      "Club": 2752,
      "Spanish": 2753,
      "Aust": 2754,
      "reli": 2755,
      "Che": 2756,
      "mocr": 2757,
      "provide": 2758,
      "ander": 2759,
      "create": 2760,
      "relative": 2761,
      "igade": 2762,
      "territ": 2763,
      "polic": 2764,
      "aries": 2765,
      "idents": 2766,
      "qual": 2767,
      "spo": 2768,
      "proposed": 2769,
      "big": 2770,
      "intended": 2771,
      "influence": 2772,
      "Party": 2773,
      "Im": 2774,
      "overall": 2775,
      "verse": 2776,
      "captured": 2777,
      "ato": 2778,
      "Soviet": 2779,
      "burn": 2780,
      "moving": 2781,
      "distr": 2782,
      "ili": 2783,
      "occas": 2784,
      "Rob": 2785,
      "fully": 2786,
      "running": 2787,
      "Super": 2788,
      "artment": 2789,
      "supported": 2790,
      "lot": 2791,
      "Association": 2792,
      "thers": 2793,
      "escap": 2794,
      "quarter": 2795,
      "abs": 2796,
      "Del": 2797,
      "purch": 2798,
      "fell": 2799,
      "han": 2800,
      "Chicago": 2801,
      "expected": 2802,
      "mach": 2803,
      "nearly": 2804,
      "Many": 2805,
      "Love": 2806,
      "Lo": 2807,
      "pread": 2808,
      "forward": 2809,
      "ba": 2810,
      "syn": 2811,
      "helped": 2812,
      "movement": 2813,
      "1998": 2814,
      "Chinese": 2815,
      "awarded": 2816,
      "Song": 2817,
      "bring": 2818,
      "mixed": 2819,
      "commercial": 2820,
      "nu": 2821,
      "bey": 2822,
      "secut": 2823,
      "marked": 2824,
      "Council": 2825,
      "dy": 2826,
      "closed": 2827,
      "issued": 2828,
      "Oper": 2829,
      "experience": 2830,
      "consist": 2831,
      "cit": 2832,
      "185": 2833,
      "stars": 2834,
      "stra": 2835,
      "Record": 2836,
      "fish": 2837,
      "Edward": 2838,
      "dark": 2839,
      "Di": 2840,
      "Go": 2841,
      "phen": 2842,
      "Enter": 2843,
      "Ze": 2844,
      "planned": 2845,
      "dead": 2846,
      "breed": 2847,
      "34": 2848,
      "300": 2849,
      "hood": 2850,
      "done": 2851,
      "pow": 2852,
      "bility": 2853,
      "joy": 2854,
      "legal": 2855,
      "wing": 2856,
      "iple": 2857,
      "Hu": 2858,
      "fans": 2859,
      "longer": 2860,
      "operation": 2861,
      "language": 2862,
      "attract": 2863,
      "higher": 2864,
      "bon": 2865,
      "dig": 2866,
      "compared": 2867,
      "increasing": 2868,
      "leader": 2869,
      "bad": 2870,
      "cele": 2871,
      "lor": 2872,
      "deep": 2873,
      "olk": 2874,
      "Johnson": 2875,
      "touch": 2876,
      "living": 2877,
      "approximately": 2878,
      "ience": 2879,
      "Ir": 2880,
      "Bal": 2881,
      "print": 2882,
      "feature": 2883,
      "temper": 2884,
      "fifth": 2885,
      "Back": 2886,
      "themselves": 2887,
      "Kore": 2888,
      "Art": 2889,
      "History": 2890,
      "1st": 2891,
      "producer": 2892,
      "screen": 2893,
      "Mr": 2894,
      "bury": 2895,
      "icles": 2896,
      "mostly": 2897,
      "ams": 2898,
      "48": 2899,
      "Pacific": 2900,
      "intens": 2901,
      "rica": 2902,
      "Billboard": 2903,
      "think": 2904,
      "Cro": 2905,
      "operations": 2906,
      "cu": 2907,
      "remains": 2908,
      "finan": 2909,
      "defeat": 2910,
      "orial": 2911,
      "chall": 2912,
      "appears": 2913,
      "mitted": 2914,
      "weap": 2915,
      "Mur": 2916,
      "buildings": 2917,
      "aught": 2918,
      "whether": 2919,
      "Under": 2920,
      "MS": 2921,
      "ender": 2922,
      "ked": 2923,
      "wa": 2924,
      "plot": 2925,
      "extended": 2926,
      "copies": 2927,
      "probably": 2928,
      "soldiers": 2929,
      "spired": 2930,
      "weight": 2931,
      "Arch": 2932,
      "voice": 2933,
      "Queen": 2934,
      "stream": 2935,
      "pose": 2936,
      "heav": 2937,
      "Squadron": 2938,
      "1997": 2939,
      "Since": 2940,
      "complex": 2941,
      "roll": 2942,
      "portr": 2943,
      "Atlantic": 2944,
      "Tor": 2945,
      "lyrics": 2946,
      "FA": 2947,
      "deb": 2948,
      "affe": 2949,
      "igr": 2950,
      "shoot": 2951,
      "mel": 2952,
      "fill": 2953,
      "jected": 2954,
      "transport": 2955,
      "battles": 2956,
      "really": 2957,
      "ban": 2958,
      "countries": 2959,
      "riage": 2960,
      "Test": 2961,
      "ospital": 2962,
      "boy": 2963,
      "39": 2964,
      "cm": 2965,
      "los": 2966,
      "suffered": 2967,
      "Law": 2968,
      "Lake": 2969,
      "andon": 2970,
      "Rad": 2971,
      "goals": 2972,
      "Sever": 2973,
      "Florida": 2974,
      "demand": 2975,
      "cting": 2976,
      "Big": 2977,
      "includes": 2978,
      "Tur": 2979,
      "cis": 2980,
      "health": 2981,
      "issues": 2982,
      "immediately": 2983,
      "capital": 2984,
      "Both": 2985,
      "47": 2986,
      "Bet": 2987,
      "Mat": 2988,
      "Sea": 2989,
      "mat": 2990,
      "bs": 2991,
      "manager": 2992,
      "rich": 2993,
      "private": 2994,
      "visit": 2995,
      "ert": 2996,
      "request": 2997,
      "Jim": 2998,
      "Leg": 2999,
      "amed": 3000,
      "Jew": 3001,
      "officers": 3002,
      "colon": 3003,
      "Ot": 3004,
      "flag": 3005,
      "Fort": 3006,
      "Mel": 3007,
      "target": 3008,
      "leave": 3009,
      "ultim": 3010,
      "location": 3011,
      "aging": 3012,
      "gas": 3013,
      "Trans": 3014,
      "mic": 3015,
      "Station": 3016,
      "expand": 3017,
      "removed": 3018,
      "ado": 3019,
      "rat": 3020,
      "Texas": 3021,
      "flict": 3022,
      "increase": 3023,
      "yards": 3024,
      "fast": 3025,
      "birth": 3026,
      "portion": 3027,
      "subsequently": 3028,
      "Old": 3029,
      "status": 3030,
      "plans": 3031,
      "Town": 3032,
      "ging": 3033,
      "always": 3034,
      "offered": 3035,
      "confir": 3036,
      "services": 3037,
      "Studi": 3038,
      "upper": 3039,
      "China": 3040,
      "Another": 3041,
      "ously": 3042,
      "Sci": 3043,
      "vey": 3044,
      "evolution": 3045,
      "How": 3046,
      "shire": 3047,
      "aker": 3048,
      "instr": 3049,
      "problems": 3050,
      "attacks": 3051,
      "iser": 3052,
      "mas": 3053,
      "Earth": 3054,
      "demon": 3055,
      "tainment": 3056,
      "twent": 3057,
      "habit": 3058,
      "phy": 3059,
      "reser": 3060,
      "stitut": 3061,
      "forts": 3062,
      "terms": 3063,
      "aily": 3064,
      "something": 3065,
      "professional": 3066,
      "castle": 3067,
      "carry": 3068,
      "Pan": 3069,
      "administr": 3070,
      "village": 3071,
      "Boy": 3072,
      "takes": 3073,
      "contr": 3074,
      "Bra": 3075,
      "Rail": 3076,
      "Wood": 3077,
      "majority": 3078,
      "iles": 3079,
      "orning": 3080,
      "discover": 3081,
      "Emp": 3082,
      "discovered": 3083,
      "neg": 3084,
      "vironment": 3085,
      "Bow": 3086,
      "mouth": 3087,
      "makes": 3088,
      "Canadian": 3089,
      "job": 3090,
      "ranked": 3091,
      "concept": 3092,
      "composed": 3093,
      "beat": 3094,
      "cean": 3095,
      "Center": 3096,
      "assigned": 3097,
      "minute": 3098,
      "Africa": 3099,
      "oph": 3100,
      "elected": 3101,
      "adop": 3102,
      "otion": 3103,
      "uries": 3104,
      "damaged": 3105,
      "initial": 3106,
      "adium": 3107,
      "meeting": 3108,
      "nes": 3109,
      "zz": 3110,
      "chester": 3111,
      "Its": 3112,
      "olic": 3113,
      "RA": 3114,
      "rd": 3115,
      "DV": 3116,
      "onna": 3117,
      "ulated": 3118,
      "Van": 3119,
      "revealed": 3120,
      "individual": 3121,
      "Highway": 3122,
      "Sir": 3123,
      "inspired": 3124,
      "giving": 3125,
      "raised": 3126,
      "atives": 3127,
      "Russian": 3128,
      "46": 3129,
      "itect": 3130,
      "lived": 3131,
      "mist": 3132,
      "yet": 3133,
      "plays": 3134,
      "Carol": 3135,
      "Hal": 3136,
      "Hot": 3137,
      "ails": 3138,
      "necess": 3139,
      "heart": 3140,
      "inent": 3141,
      "Martin": 3142,
      "respectively": 3143,
      "associated": 3144,
      "grand": 3145,
      "Kent": 3146,
      "uter": 3147,
      "attacked": 3148,
      "actor": 3149,
      "Central": 3150,
      "numerous": 3151,
      "1995": 3152,
      "needed": 3153,
      "anch": 3154,
      "cers": 3155,
      "rout": 3156,
      "Angeles": 3157,
      "stitute": 3158,
      "Cle": 3159,
      "cand": 3160,
      "veh": 3161,
      "ulf": 3162,
      "nature": 3163,
      "Francis": 3164,
      "scient": 3165,
      "friends": 3166,
      "Ver": 3167,
      "pool": 3168,
      "distribut": 3169,
      "impact": 3170,
      "launched": 3171,
      "Mont": 3172,
      "stitution": 3173,
      "constructed": 3174,
      "domin": 3175,
      "Cy": 3176,
      "conditions": 3177,
      "books": 3178,
      "occurred": 3179,
      "step": 3180,
      "ider": 3181,
      "information": 3182,
      "contains": 3183,
      "sales": 3184,
      "estival": 3185,
      "shown": 3186,
      "ech": 3187,
      "Congress": 3188,
      "attempted": 3189,
      "uals": 3190,
      "uments": 3191,
      "tur": 3192,
      "2nd": 3193,
      "exam": 3194,
      "Bob": 3195,
      "ications": 3196,
      "piece": 3197,
      "struction": 3198,
      "Ru": 3199,
      "singer": 3200,
      "critical": 3201,
      "Prince": 3202,
      "2016": 3203,
      "secur": 3204
    },
    "merges": [
      "t h",
      "i n",
      "e r",
      "a n",
      "th e",
      "o n",
      "e d",
      "r e",
      "a t",
      "e n",
      "o r",
      "a l",
      "s t",
      "a r",
      "an d",
      "a s",
      "o f",
      "in g",
      "e s",
      "t o",
      "i s",
      "i t",
      "o u",
      "i c",
      "i on",
      "l e",
      "h e",
      "r o",
      "i l",
      "a c",
      "en t",
      "a d",
      "s e",
      "a m",
      "o m",
      "b e",
      "l y",
      "w as",
      "f or",
      "c h",
      "v e",
      "d e",
      "u r",
      "o l",
      "i r",
      "T he",
      "i m",
      "- @",
      "@ -@",
      "i g",
      "v er",
      "t er",
      "w h",
      "o w",
      "u n",
      "i th",
      "c e",
      "a y",
      "i d",
      "c on",
      "at ion",
      "c t",
      "w ith",
      "a g",
      "th at",
      "t e",
      "b y",
      "u s",
      "o t",
      "e l",
      "er e",
      "r i",
      "u l",
      "a p",
      "e t",
      "u t",
      "1 9",
      "re s",
      "a in",
      "er s",
      "o p",
      "p l",
      "c om",
      "h is",
      "ro m",
      "u m",
      "al l",
      "0 0",
      "a b",
      "ou n",
      "i st",
      "m o",
      "s u",
      "n e",
      "s h",
      "p ro",
      "p e",
      "f rom",
      "I n",
      "c l",
      "at e",
      "a re",
      "l i",
      "t r",
      "ar t",
      "th er",
      "o s",
      "ig h",
      "e m",
      "d i",
      "e x",
      "b er",
      "e st",
      "ic h",
      "a k",
      "l d",
      "w ere",
      "o c",
      "il l",
      "ar d",
      "a st",
      "i es",
      "an t",
      "p er",
      "on g",
      "q u",
      "g h",
      "m ent",
      "at ed",
      "m an",
      "i ve",
      "ou t",
      "am e",
      "it y",
      "es s",
      "f e",
      "o d",
      "ou r",
      "h ad",
      "en d",
      "is h",
      "ac k",
      "or t",
      "on e",
      "al s",
      "a v",
      "g e",
      "o ver",
      "e ar",
      "t w",
      "a f",
      "i p",
      "wh ich",
      "ou gh",
      "d er",
      "b ut",
      "g r",
      "n ot",
      "v i",
      "as s",
      "ac t",
      "al ly",
      "oun d",
      "a ve",
      "st r",
      "in e",
      "igh t",
      "h er",
      "ar y",
      "r it",
      "u d",
      "it s",
      "i v",
      "d u",
      "p r",
      "i an",
      "e p",
      "i f",
      "S t",
      "C h",
      "o re",
      "2 0",
      "w or",
      "f ir",
      "u p",
      "2 00",
      "e w",
      "i a",
      "ou ld",
      "c or",
      "a u",
      "ou s",
      "ow n",
      "b o",
      "b l",
      "a w",
      "ac h",
      "ct ion",
      "e v",
      "com p",
      "ag e",
      "k e",
      "at t",
      "l and",
      "fir st",
      "p ort",
      "ig n",
      "it ion",
      "for m",
      "s i",
      "the ir",
      "ic al",
      "l o",
      "l ow",
      "i al",
      "s er",
      "t im",
      "l l",
      "p o",
      "at er",
      "als o",
      "H e",
      "wh o",
      "b r",
      "in t",
      "p art",
      "u re",
      "1 8",
      "c re",
      "h as",
      "o ther",
      "an s",
      "h ave",
      "om e",
      "pl ay",
      "p t",
      "o k",
      "u st",
      "of f",
      "con t",
      ". @",
      "@ .@",
      "tw o",
      "i le",
      "re e",
      "en ce",
      "c o",
      "p res",
      "ur ing",
      "m e",
      "be en",
      "p re",
      "ic e",
      "w e",
      "an ce",
      "m er",
      "d is",
      ", @",
      "@ ,@",
      "20 1",
      "T h",
      "p os",
      "I t",
      "p h",
      "th is",
      "or y",
      "y ear",
      "af ter",
      "ul t",
      "el l",
      "re n",
      "d es",
      "ac e",
      "s c",
      "v ed",
      "f in",
      "ar k",
      "A n",
      "c ent",
      "ab le",
      "ad e",
      "m on",
      "the y",
      "in cl",
      "u e",
      "it e",
      "an g",
      "a il",
      "U n",
      "wor k",
      "e ver",
      "c ed",
      "f f",
      "a ir",
      "c r",
      "s ion",
      "cor d",
      "tim e",
      "s p",
      "in ter",
      "ur n",
      "ation s",
      "w ould",
      "sh ip",
      "i z",
      "in to",
      "h im",
      "ic k",
      "ve l",
      "s pe",
      "s he",
      "n o",
      "m ber",
      "i e",
      "at es",
      "ic t",
      "as ed",
      "mo re",
      "i re",
      "il m",
      "it ed",
      "m in",
      "ol d",
      "t y",
      "w ay",
      "A r",
      "s on",
      "am p",
      "c es",
      "mo st",
      "o g",
      "ne w",
      "f ore",
      "m ain",
      "A l",
      "be c",
      "r y",
      "an y",
      "t en",
      "re t",
      "as e",
      "us ed",
      "an n",
      "as on",
      "f l",
      "o od",
      "incl ud",
      "con d",
      "c ess",
      "ct ed",
      "ing s",
      "r an",
      "in d",
      "a th",
      "v is",
      "l es",
      "or s",
      "r ed",
      "d ay",
      "f ilm",
      "wh en",
      "t ed",
      "t on",
      "c ol",
      "il d",
      "r ough",
      "com m",
      "ak e",
      "w ard",
      "M ar",
      "o b",
      "c k",
      "ic an",
      "en s",
      "A u",
      "t s",
      "b u",
      "g an",
      "r a",
      "th ough",
      "s y",
      "re g",
      "ion s",
      "R e",
      "e en",
      "W h",
      "D e",
      "d uring",
      "th an",
      "O n",
      "o se",
      "ag ain",
      "s o",
      "g ame",
      "g en",
      "un der",
      "b le",
      "u bl",
      "ch ar",
      "n or",
      "pro du",
      "19 9",
      "on ly",
      "ol low",
      "the m",
      "ab out",
      "i de",
      "ro w",
      "c an",
      "ent s",
      "wh ile",
      "N ew",
      "E n",
      "ation al",
      "o y",
      "s ome",
      "s ong",
      "re le",
      "l ater",
      "l ed",
      "er ed",
      "ou th",
      "e le",
      "tw een",
      "be tween",
      "1 0",
      "s ing",
      "r on",
      "at ing",
      "c oun",
      "th ree",
      "A f",
      "k n",
      "wh ere",
      "th rough",
      "n um",
      "a id",
      "A s",
      "se ason",
      "ic s",
      "f ul",
      "vi ew",
      "m y",
      "l ar",
      "con s",
      "A mer",
      "er n",
      "t ain",
      "w rit",
      "su b",
      "str u",
      "i ed",
      "d r",
      "L e",
      "the n",
      "re l",
      "ul ar",
      "i ver",
      "00 0",
      "ter s",
      "se l",
      "J o",
      "h igh",
      "se cond",
      "m ed",
      "se t",
      "m ade",
      "C om",
      "e f",
      "c ur",
      "am es",
      "b um",
      "re cord",
      "f our",
      "d o",
      "g o",
      "c ap",
      "f ollow",
      "u b",
      "oc k",
      "1 7",
      "spe c",
      "c all",
      "su ch",
      "c ar",
      "s ur",
      "en g",
      "ish ed",
      "at ch",
      "N o",
      "b ack",
      "be fore",
      "th ere",
      "te am",
      "w ell",
      "1 5",
      "m a",
      "i el",
      "m us",
      "in n",
      "v en",
      "ch o",
      "year s",
      "S h",
      "ap pe",
      "C on",
      "ad d",
      "p ol",
      "T his",
      "ro s",
      "N or",
      "id ent",
      "su p",
      "if ic",
      "al bum",
      "p ubl",
      "re at",
      "il y",
      "ow ever",
      "j e",
      "f er",
      "g u",
      ". .",
      "te m",
      "al e",
      "u al",
      "at ive",
      "un t",
      "man y",
      "po int",
      "be ing",
      "ep is",
      "u ary",
      "on d",
      "ou p",
      "o de",
      "e k",
      "in ce",
      "w ar",
      "vel op",
      "in s",
      "A t",
      "ur y",
      "again st",
      "u se",
      "num ber",
      "p ed",
      "B e",
      "si de",
      "le ad",
      "sh ow",
      "f t",
      "char ac",
      "Af ter",
      "p ar",
      "1 6",
      "se ver",
      "l oc",
      "1 2",
      "m em",
      "as h",
      "l ong",
      "au se",
      "appe ar",
      "i ous",
      "i o",
      "re ce",
      "bec ame",
      "B rit",
      "includ ing",
      "h n",
      "li ke",
      "c y",
      "Un ited",
      "ser v",
      "es e",
      "S e",
      "bo th",
      "c ri",
      "is e",
      "ser ies",
      "o st",
      "19 8",
      "f ound",
      "fe at",
      "kn own",
      "m i",
      "l ine",
      "ig in",
      "c over",
      "d id",
      "19 4",
      "S he",
      "ro p",
      "end ed",
      "er al",
      "a z",
      "de velop",
      "t ri",
      "le y",
      "m ill",
      "c er",
      "W ar",
      "cont in",
      "ment s",
      "it ies",
      "di re",
      "u res",
      "3 0",
      "d own",
      "En g",
      "r un",
      "su c",
      "p op",
      "he ad",
      "m ar",
      "di ff",
      "W or",
      "ro ad",
      "Jo hn",
      "F or",
      "u ch",
      "p ass",
      "ir d",
      "epis ode",
      "s aid",
      "le g",
      "p or",
      "ou se",
      "w est",
      "res s",
      "m is",
      "c he",
      "R o",
      "c ould",
      "ers on",
      "a h",
      "sever al",
      "l in",
      "Amer ican",
      "G r",
      "per i",
      "or n",
      "iel d",
      "v ol",
      "v id",
      "1 4",
      "or igin",
      "call ed",
      "19 7",
      "I I",
      "is ed",
      "comp le",
      "re st",
      "19 6",
      "B r",
      "u ally",
      "s ign",
      "st em",
      "mus ic",
      "sel f",
      "b ed",
      "ce pt",
      "re main",
      "ret urn",
      "st e",
      "op er",
      "be gan",
      "G er",
      "1 3",
      "des ign",
      "tr y",
      "t ing",
      "an k",
      "op le",
      "cho ol",
      "m en",
      "he l",
      "tr ans",
      "de c",
      "st ate",
      "ak ing",
      "ear ly",
      "c i",
      "b all",
      "T r",
      "rele ased",
      "ne ar",
      "d ist",
      "h y",
      "C ol",
      "U S",
      "iv ed",
      "des cri",
      "un e",
      "je ct",
      "unt il",
      "ol og",
      "ar r",
      "op en",
      "suc cess",
      "pl ac",
      "pres ent",
      "s m",
      "h ist",
      "f am",
      "ros s",
      "ar ch",
      "g g",
      "C l",
      "M ay",
      "ist s",
      "b and",
      "off ic",
      "v al",
      "c rit",
      "l ess",
      "g et",
      "over n",
      "5 0",
      "j or",
      "gr oup",
      "g ust",
      "m s",
      "m ay",
      "v ent",
      "al ong",
      "v es",
      "n am",
      "b ers",
      "ow er",
      "m il",
      "to w",
      "mill ion",
      "x t",
      "Brit ish",
      "b re",
      "c ast",
      "or der",
      "s im",
      "v ing",
      "S ep",
      "en n",
      "m et",
      "the se",
      "oc i",
      "com e",
      "r ic",
      "a ther",
      "iz ed",
      "fe ct",
      "or d",
      "att ack",
      "c ut",
      "S p",
      "C ar",
      "c le",
      "B l",
      "le t",
      "W il",
      "te mber",
      "s k",
      "n ational",
      "str al",
      "un d",
      "Sep tember",
      "n ow",
      "Wor ld",
      "Au gust",
      "ur ed",
      "st or",
      "re qu",
      "St ates",
      "b att",
      "to ok",
      "J u",
      "contin u",
      "i b",
      "lar ge",
      "s ame",
      "pe ople",
      "o ot",
      "c a",
      "v ar",
      "charac ter",
      "gr ap",
      "de p",
      "bec ause",
      "vi de",
      "1 1",
      "l ight",
      "is m",
      "pos ition",
      "ir ed",
      "res ult",
      "ar ound",
      "A d",
      "O c",
      "I s",
      "st art",
      "k m",
      "ct or",
      "cl ass",
      "av ing",
      "k ing",
      "c our",
      "iver s",
      "J an",
      "o th",
      "a im",
      "p on",
      "l a",
      "Au stral",
      "m ark",
      "form ed",
      "vis ion",
      "sup port",
      "bu ild",
      "P l",
      "ant s",
      "we ek",
      "t al",
      "follow ing",
      "nor th",
      "ri st",
      "li fe",
      "all ow",
      "sy stem",
      "si x",
      "H owever",
      "P r",
      "is on",
      "af t",
      "tr ack",
      "Oc to",
      "p rom",
      "or k",
      "cons id",
      "y s",
      "e ach",
      "rece ived",
      "im e",
      "ur ch",
      "a x",
      "w ill",
      "Octo ber",
      "ain ed",
      "W est",
      "il ity",
      "i um",
      "pl ace",
      "l ing",
      "s ol",
      "ver y",
      "g overn",
      "ar s",
      "ther n",
      "li am",
      "f ive",
      "j ust",
      "st and",
      "are a",
      "r ight",
      "ward s",
      "cent ury",
      "as k",
      "ap pro",
      "S c",
      "The y",
      "de f",
      "B y",
      "in a",
      "m atch",
      "part ic",
      "ate ly",
      "p le",
      "Nor th",
      "re port",
      "c ity",
      "Y ork",
      "wor ld",
      "ro te",
      "publ ic",
      "bo ok",
      "J une",
      "to p",
      "cont ro",
      "g iv",
      "t le",
      "g er",
      "j o",
      "sm all",
      "ma jor",
      "f ield",
      "cord ing",
      "K ing",
      "2 5",
      "gr ound",
      "Ju ly",
      "C an",
      "M an",
      "l ast",
      "No ve",
      "or gan",
      "Nove mber",
      "play ed",
      "wh at",
      "n er",
      "at ter",
      "t urn",
      "tow n",
      "t it",
      "F e",
      "p erson",
      "s ince",
      "ion al",
      "l ish",
      "sing le",
      "g un",
      "re ad",
      "A pr",
      "e ast",
      "Mar ch",
      "se qu",
      "i k",
      "Apr il",
      "re ach",
      "ag ed",
      "u de",
      "M c",
      "A c",
      "C o",
      "ar m",
      "ev en",
      "c are",
      "h al",
      "ur al",
      "p ri",
      "E u",
      "st er",
      "G e",
      "w on",
      "n ame",
      "b ro",
      "d om",
      "l it",
      "p ower",
      "id ge",
      "diff er",
      "0 s",
      "C oun",
      "vi ous",
      "ic a",
      "ag ue",
      "In di",
      "in ed",
      "te st",
      "fin al",
      "re f",
      "le ft",
      "i er",
      "S outh",
      "r u",
      "du e",
      "M e",
      "P h",
      "g re",
      "u di",
      "s outh",
      "ag es",
      "ev ent",
      "ver sion",
      "D uring",
      "l ist",
      "s chool",
      "De ce",
      "af f",
      "S te",
      "av y",
      "Ger man",
      "Dece mber",
      "E d",
      "th ird",
      "il t",
      "w ater",
      "et s",
      "in cre",
      "mon th",
      "W e",
      "is ion",
      "mo ved",
      "m uch",
      "ch ild",
      "on s",
      "ex pl",
      "an other",
      "ian s",
      "nam ed",
      "Jan uary",
      "includ ed",
      "19 5",
      "O r",
      "b ased",
      "is su",
      "A ll",
      "cl aim",
      "l s",
      "c amp",
      "w rote",
      "al es",
      "19 3",
      "ship s",
      "govern ment",
      "an e",
      "2 4",
      "h ome",
      "k ill",
      "ch an",
      "ap an",
      "Wh en",
      "P e",
      "sh ort",
      "st ory",
      "G u",
      "ber t",
      "i ally",
      "de ath",
      "ap p",
      "u te",
      "ic ally",
      "P ro",
      "at ure",
      "ough t",
      "J apan",
      "od y",
      "ro y",
      "ex t",
      "pres s",
      "us ing",
      "m ake",
      "tem pt",
      "os s",
      "it al",
      "fam ily",
      "re view",
      "h and",
      "fl u",
      "spec ies",
      "h ouse",
      "pe ct",
      "ut ion",
      "ne y",
      "em ent",
      "descri bed",
      "ard s",
      "ren ch",
      "f act",
      "d am",
      "pre vious",
      ".. .",
      "de st",
      "row n",
      "B o",
      "en e",
      "Eu ro",
      "l ate",
      "for man",
      "be li",
      "th ing",
      "re al",
      "ur ther",
      "l er",
      "bu ilt",
      "c as",
      "gen er",
      "il ar",
      "n ess",
      "if ied",
      "form er",
      "be st",
      "m p",
      "t ak",
      "ou te",
      "at tempt",
      "plac ed",
      "g ames",
      "col le",
      "tr act",
      "M on",
      "pol it",
      "ar ed",
      "he ld",
      "comm and",
      "at s",
      "P ar",
      "p ut",
      "et y",
      "st ud",
      "st it",
      "for d",
      "st ill",
      "H is",
      "v o",
      "origin al",
      "gr am",
      "th ose",
      "l im",
      "d en",
      "con stru",
      "add ition",
      "au gh",
      "Fe br",
      "Febr uary",
      "g y",
      "f el",
      "ne xt",
      "ent ly",
      "ef fect",
      "Ch rist",
      "at or",
      "2 2",
      "m id",
      "f all",
      "th or",
      "Th ere",
      "f ri",
      "per forman",
      "1 00",
      "h am",
      "mem bers",
      "s ent",
      "r ican",
      "en ces",
      "ction s",
      "v an",
      "G en",
      "in c",
      "N ational",
      "us h",
      "m it",
      "L i",
      "Euro pe",
      "2 1",
      "b ur",
      "ivers ity",
      "day s",
      "peri od",
      "with in",
      "ch ed",
      "in es",
      "F rench",
      "ro le",
      "rele ase",
      "z e",
      "in it",
      "al though",
      "mo ve",
      "w ind",
      "vide o",
      "h ip",
      "s ay",
      "ran k",
      "hal f",
      "201 0",
      "2 3",
      "n a",
      "est ab",
      "H er",
      "c ame",
      "S er",
      "ar ri",
      "p s",
      "An d",
      "in k",
      "w om",
      "Wil liam",
      "rop ical",
      "continu ed",
      "l aw",
      "al i",
      "2 7",
      "cr aft",
      "ain ing",
      "r is",
      "n ing",
      "ain s",
      "h um",
      "us s",
      "r ound",
      "ul ation",
      "ri but",
      "on es",
      "w in",
      "s ou",
      "pos ed",
      "h owever",
      "end ing",
      "s en",
      "it ary",
      "200 8",
      "2 8",
      "f ac",
      "r al",
      "inn ing",
      "u c",
      "200 9",
      "Ge or",
      "of ten",
      "y ou",
      "ri ed",
      "fe w",
      "r ad",
      "ist er",
      "im es",
      "e qu",
      "m ag",
      "B ar",
      "st ri",
      "amp ion",
      "t ake",
      "i x",
      "w ood",
      "fri end",
      "D es",
      "loc al",
      "E ar",
      "play er",
      "201 1",
      "A ir",
      "sim ilar",
      "2 6",
      "4 0",
      "am ong",
      "be g",
      "In ter",
      "produ ction",
      "M ich",
      "i or",
      "on y",
      "for ce",
      "p ite",
      "w ent",
      "differ ent",
      "at ic",
      "o ve",
      "Ch ar",
      "ch ang",
      "er y",
      "mis sion",
      "id es",
      "pos si",
      "Eng land",
      "stor m",
      "O ne",
      "str ong",
      "f urther",
      "n ight",
      "H ar",
      "M us",
      "po st",
      "st y",
      "consid ered",
      "a e",
      "comp any",
      "D av",
      "le vel",
      "ser ved",
      "f ire",
      "ic es",
      "a ver",
      "200 7",
      "id ed",
      "care er",
      "u ck",
      "un g",
      "a i",
      "ive ly",
      "pro vid",
      "C ity",
      "E ast",
      "h aving",
      "for t",
      "P ark",
      "act ion",
      "g ed",
      "i ent",
      "comm un",
      "ex p",
      "tr ad",
      "F r",
      "te le",
      "Eng lish",
      "qu e",
      "f ron",
      "ent er",
      "op s",
      "S o",
      "cl ub",
      "ever y",
      "iv es",
      "h old",
      "with out",
      "hist ory",
      "re fer",
      "Al though",
      "land s",
      "st udi",
      "w ide",
      "grap h",
      "writ ten",
      "Sc ot",
      "201 2",
      "ste ad",
      "be come",
      "bo ard",
      "2 9",
      "re et",
      "res pon",
      "L ond",
      "in flu",
      "An g",
      "Lond on",
      "f oot",
      "s ound",
      "E x",
      "s cor",
      "W ith",
      "gg est",
      "is s",
      "R iver",
      "M o",
      "B att",
      "in vol",
      "su ggest",
      "ing ton",
      "19 0",
      "b or",
      "t ro",
      "N e",
      "giv en",
      "b us",
      "pr of",
      "ann oun",
      "di vid",
      "oun g",
      "m and",
      "ke y",
      "d s",
      "T e",
      "w ant",
      "S y",
      "c ial",
      "T o",
      "c op",
      "com b",
      "u g",
      "build ing",
      "chan ge",
      "H igh",
      "Can ad",
      "im p",
      "F l",
      "f r",
      "im ent",
      "f ather",
      "g ave",
      "success ful",
      "com mon",
      "publ ished",
      "cl ose",
      "P ol",
      "Un iversity",
      "im port",
      "st ated",
      "se ven",
      "su re",
      "g ood",
      "g n",
      "ne ver",
      "Wh ile",
      "ail ed",
      "return ed",
      "an im",
      "be h",
      "om in",
      "produ ced",
      "to tal",
      "au thor",
      "f ace",
      "pro te",
      "coun try",
      "de l",
      "b ar",
      "ev ed",
      "aw ay",
      "se e",
      "h our",
      "are n",
      "qu ad",
      "C or",
      "s it",
      "pop ular",
      "to ur",
      "om et",
      "a ur",
      "ab ly",
      "f un",
      "report ed",
      "D iv",
      "D r",
      "d ri",
      "lo st",
      "200 6",
      "pro gram",
      "cap t",
      "ch n",
      "comp os",
      "g reat",
      "a ign",
      "way s",
      "ve st",
      "partic ular",
      "am a",
      "dr aw",
      "k s",
      "m aking",
      "ren t",
      "ver s",
      "incl ude",
      "en ed",
      "h ow",
      "Ac cording",
      "de cl",
      "s oci",
      "inter est",
      "stru ct",
      "olog y",
      "record ed",
      "in du",
      "cover ed",
      "o x",
      "f le",
      "for ces",
      "ne ed",
      "v ict",
      "dire ct",
      "b ody",
      "ur rican",
      "ition s",
      "A m",
      "s ite",
      "Ph il",
      "sh ould",
      "pl an",
      "v oc",
      "pl oy",
      "qu ar",
      "serv ice",
      "um ent",
      "su ff",
      "mo der",
      "performan ce",
      "di ed",
      "te en",
      "tim es",
      "n et",
      "Th ese",
      "gr ad",
      "an a",
      "com ing",
      "f an",
      "ro ck",
      "p en",
      "n ed",
      "R oy",
      "air craft",
      "s um",
      "him self",
      "201 3",
      "te ll",
      "int ro",
      "mil itary",
      "f lo",
      "p ur",
      "in ess",
      "J ack",
      "dep end",
      "Austral ia",
      "ro om",
      "batt le",
      "b as",
      "ag re",
      "a ul",
      "P res",
      "song s",
      "ast er",
      "ele ct",
      "M in",
      "mem ber",
      "R ep",
      "c ing",
      "it ch",
      "g l",
      "crit ic",
      "develop ment",
      "Gen eral",
      "B C",
      "St ate",
      "x im",
      "se arch",
      "fron t",
      "al th",
      "re present",
      "a el",
      "s w",
      "18 9",
      "it ive",
      "lo ok",
      "g es",
      "6 0",
      "ac y",
      "s l",
      "ak es",
      "hist or",
      "J ames",
      "develop ed",
      "ist r",
      "v ir",
      "R om",
      "med i",
      "contro l",
      "intro du",
      "dest roy",
      "st ar",
      "n al",
      "child ren",
      "G re",
      "remain ed",
      "S m",
      "pt ion",
      "ran ge",
      "f av",
      "charac ters",
      "Ar my",
      "ch art",
      "tit le",
      "or ed",
      "re w",
      "m m",
      "cle ar",
      "month s",
      "S u",
      "e y",
      "is ing",
      "u es",
      "ith er",
      "r ap",
      "il le",
      "en se",
      "camp aign",
      "oc cur",
      "ab ility",
      "Le ague",
      "c ult",
      "urrican e",
      "c ir",
      "tak en",
      "om b",
      "e ight",
      "ge ther",
      "comp et",
      "fel t",
      "ot s",
      "t ropical",
      "sign ific",
      "writ ing",
      "ac ross",
      "se en",
      "pro ject",
      "C ap",
      "t ar",
      "pr a",
      "er ing",
      "br idge",
      "st ation",
      "g est",
      "to o",
      "cre ated",
      "T w",
      "Amer ica",
      "appear ed",
      "announ ced",
      "not ed",
      "al ter",
      "Div ision",
      "S w",
      "Geor ge",
      "reach ed",
      "ap point",
      "c il",
      "H en",
      "h or",
      "g in",
      "ex peri",
      "act iv",
      "Coun ty",
      "us es",
      "work s",
      "are as",
      "o v",
      "tele vision",
      "s aw",
      "P er",
      "M a",
      "f ight",
      "200 5",
      "Ro ad",
      "Japan ese",
      "le ct",
      "pr im",
      "co st",
      "per formed",
      "re am",
      "var ious",
      "polit ical",
      "bre ak",
      "St reet",
      "comple te",
      "follow ed",
      "h ar",
      "ful l",
      "it ing",
      "al ity",
      "r ace",
      "play ers",
      "ag o",
      "tr ave",
      "sty le",
      "201 4",
      "in v",
      "m b",
      "m ot",
      "ard ed",
      "ab or",
      "bl ack",
      "pro cess",
      "m ph",
      "mi x",
      "n on",
      "M ad",
      "ant ic",
      "w all",
      "o to",
      "point s",
      "kill ed",
      "ie f",
      "iz ation",
      "hel p",
      "h it",
      "be t",
      "be l",
      "cre w",
      "lin es",
      "li ve",
      "l ished",
      "s ess",
      "through out",
      "se x",
      "te chn",
      "st at",
      "to gether",
      "form ation",
      "cr u",
      "de but",
      "lit tle",
      "E l",
      "f em",
      "estab lished",
      "signific ant",
      "me et",
      "b road",
      "tr a",
      "Th om",
      "ul l",
      "ic ult",
      "co ast",
      "though t",
      "constru ction",
      "av al",
      "f ar",
      "fin d",
      "Re g",
      "p air",
      "mil es",
      "ear li",
      "do es",
      "en ced",
      "im pro",
      "b orn",
      "Dav id",
      "od es",
      "g ot",
      "Mich ael",
      "p ain",
      "ent ire",
      "is sion",
      "Austral ian",
      "st age",
      "r ain",
      "at ors",
      "y oung",
      "R ich",
      "rel ation",
      "S an",
      "M ed",
      "spec ial",
      "wom en",
      "con om",
      "r oute",
      "Q u",
      "con ne",
      "dec ided",
      "B ill",
      "ac c",
      "Y ou",
      "P art",
      "iv il",
      "c ase",
      "i ble",
      "an ces",
      "8 0",
      "ca used",
      "start ed",
      "gen eral",
      "h o",
      "se ll",
      "play ing",
      "feat ures",
      "F in",
      "wh ite",
      "g row",
      "H ouse",
      "av es",
      "on ce",
      "event ually",
      "te e",
      "p at",
      "amp le",
      "ist ed",
      "man ag",
      "S ch",
      "h ost",
      "s old",
      "st ant",
      "L u",
      "fe et",
      "Roy al",
      "add ed",
      "open ed",
      "al d",
      "moder n",
      "loc ated",
      "ter min",
      "M y",
      "H ist",
      "it ar",
      "id ence",
      "in j",
      "b ase",
      "i fe",
      "quad ron",
      "ampion ship",
      "var i",
      "S ome",
      "ad v",
      "dis c",
      "It al",
      "in stead",
      "P o",
      "ens ive",
      "D on",
      "M al",
      "y n",
      "cl os",
      "Bl ack",
      "pe ak",
      "h on",
      "cre t",
      "Mus ic",
      "import ant",
      "cur rent",
      "ut es",
      "se ction",
      "the ast",
      "B er",
      "at a",
      "Com p",
      "B el",
      "c ross",
      "oc ial",
      "m oun",
      "ur b",
      "comple ted",
      "possi ble",
      "end s",
      "in ation",
      "el s",
      "r ing",
      "work ed",
      "one y",
      "co gn",
      "y ing",
      "d on",
      "oth ers",
      "c ause",
      "er a",
      "f ree",
      "pop ulation",
      "200 4",
      "pr ed",
      "au di",
      "m ater",
      "H ol",
      "f ig",
      "ll ed",
      "p ie",
      "lead ing",
      "t re",
      "ty p",
      "qu est",
      "3 1",
      "ot ed",
      "A b",
      "l oss",
      "ra ther",
      "ch urch",
      "gun s",
      "beh ind",
      "d le",
      "sc ri",
      "ch es",
      "Ro bert",
      "up on",
      "ce ed",
      "pr act",
      "C r",
      "7 0",
      "for ced",
      "li e",
      "com ment",
      "l ack",
      "al k",
      "mo ther",
      "in vest",
      "Fr ance",
      "f if",
      "in o",
      "am b",
      "C ent",
      "201 5",
      "ay s",
      "kn ow",
      "v ill",
      "he avy",
      "N A",
      "m ing",
      "A ct",
      "e cut",
      "part y",
      "S chool",
      "res pect",
      "no vel",
      "sub sequ",
      "R uss",
      "pro ble",
      "3 5",
      "V i",
      "re ve",
      "ac cept",
      "diff icult",
      "W ash",
      "hum an",
      "work ing",
      "h ard",
      "se par",
      "ass oci",
      "jo ined",
      "week s",
      "M or",
      "ter m",
      "H am",
      "Hen ry",
      "col l",
      "sc ene",
      "origin ally",
      "av ail",
      "A le",
      "E m",
      "as ing",
      "or ies",
      "ang u",
      "pres sion",
      "scor ed",
      "al most",
      "in st",
      "18 8",
      "dam age",
      "t ies",
      "sp ir",
      "g ar",
      "Batt le",
      "m ass",
      "allow ed",
      "id s",
      "iv al",
      "four th",
      "B est",
      "S pe",
      "am ent",
      "R ed",
      "ign ed",
      "appro ach",
      "read y",
      "provid ed",
      "V ir",
      "eng ine",
      "F ir",
      "go al",
      "d rop",
      "low er",
      "op e",
      "M il",
      "P ort",
      "claim ed",
      "su per",
      "T V",
      "c up",
      "want ed",
      "reg ular",
      "D an",
      "P aul",
      "em ploy",
      "5 00",
      "ce ll",
      "M ac",
      "br ought",
      "Q ue",
      "n at",
      "ap s",
      "trad ition",
      "ul a",
      "C our",
      "G l",
      "comp an",
      "F ran",
      "b al",
      "in divid",
      "feat ured",
      "Pres ident",
      "le ast",
      "la un",
      "w ife",
      "he st",
      "e conom",
      "aver age",
      "so on",
      "pass ed",
      "bus iness",
      "cr ed",
      "to wards",
      "reg ion",
      "ree k",
      "run s",
      "tem por",
      "a ut",
      "Wash ington",
      "re cogn",
      "Pl ay",
      "cour t",
      "crit ics",
      "az ine",
      "west ern",
      "ct s",
      "red u",
      "18 6",
      "qu ick",
      "coun ter",
      "est im",
      "off ice",
      "e ither",
      "con tract",
      "prof ess",
      "R es",
      "s our",
      "form s",
      "pl ann",
      "de fe",
      "em y",
      "r ail",
      "u el",
      "l eng",
      "ex ample",
      "J e",
      "u k",
      "Ang el",
      "n omin",
      "n ia",
      "O ther",
      "ic ated",
      "f oc",
      "m ult",
      "tro ops",
      "d ou",
      "r id",
      "fin ished",
      "ad es",
      "ic o",
      "ar my",
      "s cre",
      "h om",
      "as y",
      "200 3",
      "Des pite",
      "con cl",
      "r ul",
      "m al",
      "sh ot",
      "un k",
      "F ollow",
      "G ame",
      "cir c",
      "gener ally",
      "m un",
      "i als",
      "ill s",
      "pro per",
      "con du",
      "w he",
      "de t",
      "f re",
      "ap er",
      "b es",
      "p ly",
      "os p",
      "cy cl",
      "se a",
      "ant i",
      "Col le",
      "f ed",
      "com pl",
      "leng th",
      "ev ents",
      "cer t",
      "beli eved",
      "C up",
      "ke ep",
      "St ar",
      "Fir st",
      "h a",
      "partic ip",
      "al ed",
      "Follow ing",
      "part s",
      "M ary",
      "t ic",
      "f und",
      "sc en",
      "p ing",
      "i us",
      "ent ion",
      "vict ory",
      "re placed",
      "ci ally",
      "b ound",
      "n ine",
      "4 5",
      "t or",
      "design ed",
      "ict ion",
      "avail able",
      "is land",
      "D ep",
      "7 5",
      "olog ical",
      "offic ial",
      "it or",
      "L ou",
      "se le",
      "hour s",
      "ev ol",
      "Europe an",
      "con c",
      "invol ved",
      "pres ident",
      "Tw o",
      "h ab",
      "open ing",
      "M er",
      "pr ison",
      "S un",
      "st op",
      "b ri",
      "ent ial",
      "port s",
      "t a",
      "ask ed",
      "h ous",
      "cer tain",
      "ist ic",
      "te l",
      "turn ed",
      "st one",
      "ex ecut",
      "com es",
      "er ous",
      "c al",
      "ex ist",
      "dire ctor",
      "Rom an",
      "v ille",
      "say ing",
      "th reat",
      "200 0",
      "comm it",
      "appear ance",
      "p ark",
      "lo ve",
      "n d",
      "ig hest",
      "w atch",
      "M id",
      "min utes",
      "writ er",
      "oun t",
      "lar gest",
      "high way",
      "s il",
      "sou thern",
      "R oute",
      "Scot t",
      "t aking",
      "m ir",
      "iz e",
      "com mer",
      "ish ing",
      "V al",
      "ubl ic",
      "go ing",
      "sur vi",
      "h ighest",
      "F rom",
      "200 1",
      "earli er",
      "At l",
      "S ing",
      "D o",
      "init ially",
      "per cent",
      "v ice",
      "particular ly",
      "tr aining",
      "Wh ite",
      "ers hip",
      "b it",
      "le ar",
      "M ag",
      "M art",
      "ly ing",
      "9 0",
      "grap hy",
      "ed uc",
      "bo x",
      "m ust",
      "Ch urch",
      "ass ist",
      "order ed",
      "p ot",
      "issu e",
      "Char les",
      "King dom",
      "N avy",
      "a j",
      "sign ed",
      "th us",
      "h ib",
      "ate g",
      "p ond",
      "p ers",
      "O ff",
      "H all",
      "Thom as",
      "we ak",
      "s ocial",
      "cent ral",
      "tri es",
      "z a",
      "ut ure",
      "en cy",
      "ap e",
      "spe ed",
      "main tain",
      "studi o",
      "pra ised",
      "b ow",
      "D is",
      "pe cted",
      "ali for",
      "Inter national",
      "b ill",
      "ific ation",
      "Sm ith",
      "B ut",
      "d ate",
      "l angu",
      "g ress",
      "cept ion",
      "re ason",
      "Vir gin",
      "C am",
      "incre ased",
      "de al",
      "A A",
      "p ast",
      "nor thern",
      "h urricane",
      "un its",
      "re search",
      "P al",
      "200 2",
      "r ac",
      "v in",
      "rel ig",
      "vi a",
      "B ay",
      "ty pe",
      "str y",
      "de part",
      "me as",
      "Canad a",
      "p ay",
      "de li",
      "B ur",
      "C alifor",
      "comm ission",
      "ag on",
      "P ri",
      "ri an",
      "S am",
      "h ol",
      "R ock",
      "B ro",
      "H o",
      "me an",
      "im medi",
      "om er",
      "ay ed",
      "d augh",
      "ac qu",
      "D u",
      "S en",
      "il ities",
      "relation ship",
      "im in",
      "fan try",
      "Pe ter",
      "Rich ard",
      "press ed",
      "b omb",
      "in depend",
      "Ale x",
      "M i",
      "us ually",
      "to ld",
      "bet ter",
      "Indi an",
      "S al",
      "Califor nia",
      "ick et",
      "s at",
      "S k",
      "en ough",
      "n el",
      "st ates",
      "wind s",
      "Un ion",
      "B en",
      "ar ing",
      "s ed",
      "r up",
      "pos itive",
      "j our",
      "G od",
      "Cour t",
      "B rown",
      "s al",
      "Is land",
      "conc ern",
      "st on",
      "sp ent",
      "um e",
      "ph ys",
      "ac cording",
      "fer ence",
      "appoint ed",
      "T om",
      "ab ove",
      "ic le",
      "ar ily",
      "film s",
      "fe el",
      "t ion",
      "A p",
      "out side",
      "S tr",
      "G reat",
      "C ong",
      "ac coun",
      "foot ball",
      "b ird",
      "ank s",
      "A ward",
      "en er",
      "qu are",
      "l ay",
      "previous ly",
      "record ing",
      "act ive",
      "m ur",
      "respon si",
      "stand ing",
      "As soci",
      "cont ribut",
      "lo ad",
      "us ion",
      "de fin",
      "ac cess",
      "f ailed",
      "P re",
      "se y",
      "Comp any",
      "requ ired",
      "ele ments",
      "em s",
      "ren g",
      "oc cup",
      "18 7",
      "N Y",
      "k en",
      "t reat",
      "T er",
      "over nor",
      "g ir",
      "Indi a",
      "V ict",
      "Ger many",
      "review s",
      "vi ol",
      "g a",
      "dire cted",
      "S ou",
      "id a",
      "at in",
      "M ark",
      "inter view",
      "al ion",
      "wor d",
      "i que",
      "omet imes",
      "II I",
      "Christ ian",
      "it self",
      "g ive",
      "group s",
      "ver t",
      "re me",
      "at ers",
      "inn er",
      "sc ore",
      "des pite",
      "res pond",
      "b our",
      "th od",
      "F rank",
      "T imes",
      "S im",
      "pro b",
      "U K",
      "L a",
      "on to",
      "per form",
      "n s",
      "C ast",
      "K e",
      "ide a",
      "sp ace",
      "beg inning",
      "introdu ced",
      "min istr",
      "Colle ge",
      "scri pt",
      "sol di",
      "h app",
      "b i",
      "f requ",
      "st reng",
      "ep t",
      "fl ight",
      "who se",
      "s us",
      "ic ation",
      "pri v",
      "ig an",
      "bl ock",
      "trans fer",
      "J er",
      "an al",
      "en ing",
      "G old",
      "West ern",
      "le ague",
      "T ri",
      "M ex",
      "ed y",
      "c ul",
      "to m",
      "as es",
      "pre vent",
      "bro ther",
      "chang es",
      "re cent",
      "So vi",
      "p il",
      "g old",
      "H ill",
      "con f",
      "ele ction",
      "defe ated",
      "B u",
      "addition al",
      "a ult",
      "j ud",
      "s ch",
      "Gr and",
      "ap pl",
      "f uture",
      "ber g",
      "ar a",
      "wh om",
      "po or",
      "inter national",
      "M et",
      "ph oto",
      "Sp an",
      "A wards",
      "n ative",
      "ex ten",
      "struct ure",
      "cor por",
      "ev idence",
      "chang ed",
      "se m",
      "ar gu",
      "3 3",
      "quick ly",
      "cent er",
      "mark et",
      "spec ific",
      "For ce",
      "rad io",
      "b en",
      "al ready",
      "um b",
      "Th at",
      "D ay",
      "sit u",
      "at ory",
      "mater ial",
      "ain t",
      "ri ver",
      "M ost",
      "co ach",
      "em p",
      "p et",
      "di es",
      "ct ive",
      "agre ed",
      "li es",
      "it z",
      "arri ved",
      "c ivil",
      "stud y",
      "st aff",
      "Brit ain",
      "like ly",
      "M ill",
      "s low",
      "use um",
      "dec ision",
      "ly r",
      "F ilm",
      "s pr",
      "cour se",
      "sub ject",
      "h op",
      "m oney",
      "fem ale",
      "d ed",
      "Ch in",
      "es pe",
      "m ight",
      "s ometimes",
      "lim ited",
      "sur face",
      "fle et",
      "p an",
      "respon se",
      "f ood",
      "n ames",
      "ict ed",
      "mag azine",
      "P ac",
      "act ions",
      "espe cially",
      "n ation",
      "f low",
      "3 6",
      "L ater",
      "liam ent",
      "Vict or",
      "estim ated",
      "broad cast",
      "flo od",
      "Ch ampionship",
      "car ried",
      "be ll",
      "O ver",
      "consid er",
      "pl es",
      "wor th",
      "P at",
      "r or",
      "show s",
      "en a",
      "p aren",
      "commun ity",
      "gu itar",
      "b ot",
      "ud ed",
      "list ed",
      "r ate",
      "pl ant",
      "mus ical",
      "pre par",
      "te xt",
      "is es",
      "si ze",
      "scen es",
      "199 9",
      "is l",
      "arr ison",
      "rel ated",
      "remain ing",
      "y l",
      "3 7",
      "east ern",
      "min or",
      "L os",
      "em er",
      "ven ue",
      "person al",
      "nat ural",
      "be coming",
      "Ear ly",
      "Virgin ia",
      "lar ger",
      "di vision",
      "med ia",
      "l atter",
      "ent ered",
      "ob ject",
      "fav or",
      "y ard",
      "right s",
      "su it",
      "d oc",
      "pol ice",
      "sum mer",
      "mar ried",
      "suggest ed",
      "pres sure",
      "appro xim",
      "team s",
      "bri ef",
      "lit er",
      "arr ang",
      "J ust",
      "bur g",
      "ad ap",
      "it er",
      "m or",
      "Y ear",
      "daugh ter",
      "t ax",
      "invest ig",
      "ex per",
      "estab lish",
      "Jack son",
      "sur round",
      "stud ents",
      "ar i",
      "k il",
      "Se cond",
      "T y",
      "tempor ary",
      "effect s",
      "Ch ic",
      "T ex",
      "ton s",
      "wom an",
      "3 8",
      "pri or",
      "epis odes",
      "I f",
      "Fl or",
      "F le",
      "f it",
      "C al",
      "T our",
      "cl im",
      "O ly",
      "i res",
      "Lou is",
      "av o",
      "set t",
      "ir th",
      "w inning",
      "3 2",
      "4 9",
      "mo de",
      "Gre en",
      "le aving",
      "Oly mp",
      "destroy ed",
      "vir on",
      "sel ves",
      "n y",
      "track s",
      "son s",
      "L ord",
      "jo in",
      "equ ip",
      "f ail",
      "vi e",
      "Cl ub",
      "Span ish",
      "A ust",
      "re li",
      "C he",
      "mo cr",
      "pro vide",
      "and er",
      "cre ate",
      "rel ative",
      "ig ade",
      "ter rit",
      "pol ic",
      "ar ies",
      "id ents",
      "qu al",
      "s po",
      "pro posed",
      "b ig",
      "int ended",
      "influ ence",
      "Part y",
      "I m",
      "over all",
      "ver se",
      "capt ured",
      "at o",
      "Sovi et",
      "b urn",
      "mo ving",
      "dist r",
      "il i",
      "oc cas",
      "R ob",
      "ful ly",
      "run ning",
      "Su per",
      "art ment",
      "support ed",
      "l ot",
      "Associ ation",
      "th ers",
      "es cap",
      "quar ter",
      "ab s",
      "D el",
      "p urch",
      "f ell",
      "h an",
      "Chic ago",
      "ex pected",
      "m ach",
      "near ly",
      "M any",
      "L ove",
      "L o",
      "pre ad",
      "for ward",
      "b a",
      "sy n",
      "hel ped",
      "move ment",
      "199 8",
      "Chin ese",
      "aw arded",
      "S ong",
      "br ing",
      "mix ed",
      "commer cial",
      "n u",
      "be y",
      "se cut",
      "mark ed",
      "Coun cil",
      "d y",
      "clos ed",
      "issu ed",
      "O per",
      "experi ence",
      "cons ist",
      "c it",
      "18 5",
      "st ars",
      "str a",
      "Re cord",
      "f ish",
      "Ed ward",
      "d ark",
      "D i",
      "G o",
      "ph en",
      "En ter",
      "Z e",
      "plann ed",
      "de ad",
      "bre ed",
      "3 4",
      "3 00",
      "h ood",
      "d one",
      "p ow",
      "b ility",
      "j oy",
      "leg al",
      "w ing",
      "ip le",
      "H u",
      "f ans",
      "long er",
      "oper ation",
      "langu age",
      "at tract",
      "high er",
      "b on",
      "d ig",
      "comp ared",
      "incre asing",
      "lead er",
      "b ad",
      "ce le",
      "l or",
      "de ep",
      "ol k",
      "John son",
      "to uch",
      "li ving",
      "approxim ately",
      "i ence",
      "I r",
      "B al",
      "pr int",
      "feat ure",
      "tem per",
      "fif th",
      "B ack",
      "them selves",
      "K ore",
      "Ar t",
      "Hist ory",
      "1 st",
      "produ cer",
      "scre en",
      "M r",
      "b ury",
      "ic les",
      "most ly",
      "am s",
      "4 8",
      "Pac ific",
      "int ens",
      "ric a",
      "Bill board",
      "th ink",
      "C ro",
      "oper ations",
      "c u",
      "remain s",
      "fin an",
      "de feat",
      "or ial",
      "ch all",
      "appear s",
      "mit ted",
      "we ap",
      "M ur",
      "build ings",
      "augh t",
      "whe ther",
      "Un der",
      "M S",
      "end er",
      "k ed",
      "w a",
      "pl ot",
      "ext ended",
      "cop ies",
      "prob ably",
      "soldi ers",
      "sp ired",
      "we ight",
      "Ar ch",
      "vo ice",
      "Que en",
      "st ream",
      "po se",
      "he av",
      "S quadron",
      "199 7",
      "S ince",
      "comple x",
      "ro ll",
      "por tr",
      "Atl antic",
      "T or",
      "lyr ics",
      "F A",
      "de b",
      "af fe",
      "ig r",
      "sh oot",
      "m el",
      "f ill",
      "je cted",
      "trans port",
      "batt les",
      "re ally",
      "b an",
      "coun tries",
      "ri age",
      "T est",
      "osp ital",
      "bo y",
      "3 9",
      "c m",
      "l os",
      "suff ered",
      "L aw",
      "L ake",
      "and on",
      "R ad",
      "go als",
      "S ever",
      "Flor ida",
      "de mand",
      "ct ing",
      "B ig",
      "includ es",
      "T ur",
      "c is",
      "he alth",
      "issu es",
      "immedi ately",
      "cap ital",
      "B oth",
      "4 7",
      "B et",
      "M at",
      "Se a",
      "m at",
      "b s",
      "manag er",
      "r ich",
      "priv ate",
      "vis it",
      "er t",
      "requ est",
      "J im",
      "Le g",
      "am ed",
      "J ew",
      "offic ers",
      "col on",
      "O t",
      "fl ag",
      "F ort",
      "M el",
      "tar get",
      "le ave",
      "ul tim",
      "loc ation",
      "ag ing",
      "g as",
      "Tr ans",
      "m ic",
      "St ation",
      "exp and",
      "re moved",
      "ad o",
      "r at",
      "Tex as",
      "fl ict",
      "incre ase",
      "y ards",
      "f ast",
      "b irth",
      "port ion",
      "subsequ ently",
      "O ld",
      "stat us",
      "pl ans",
      "T own",
      "g ing",
      "al ways",
      "off ered",
      "con fir",
      "serv ices",
      "St udi",
      "up per",
      "Ch ina",
      "An other",
      "ous ly",
      "S ci",
      "ve y",
      "evol ution",
      "H ow",
      "sh ire",
      "ak er",
      "in str",
      "proble ms",
      "attack s",
      "is er",
      "m as",
      "Ear th",
      "de mon",
      "tain ment",
      "tw ent",
      "hab it",
      "ph y",
      "res er",
      "stit ut",
      "for ts",
      "ter ms",
      "ail y",
      "some thing",
      "profess ional",
      "cast le",
      "car ry",
      "P an",
      "ad ministr",
      "vill age",
      "B oy",
      "tak es",
      "con tr",
      "B ra",
      "R ail",
      "W ood",
      "major ity",
      "il es",
      "orn ing",
      "dis cover",
      "E mp",
      "dis covered",
      "ne g",
      "viron ment",
      "B ow",
      "m outh",
      "m akes",
      "Canad ian",
      "j ob",
      "rank ed",
      "con cept",
      "compos ed",
      "be at",
      "ce an",
      "C enter",
      "ass igned",
      "min ute",
      "Af rica",
      "op h",
      "ele cted",
      "ad op",
      "ot ion",
      "ur ies",
      "dam aged",
      "init ial",
      "ad ium",
      "meet ing",
      "n es",
      "z z",
      "che ster",
      "It s",
      "ol ic",
      "R A",
      "r d",
      "D V",
      "on na",
      "ul ated",
      "V an",
      "reve aled",
      "individ ual",
      "High way",
      "S ir",
      "in spired",
      "giv ing",
      "ra ised",
      "at ives",
      "Russ ian",
      "4 6",
      "ite ct",
      "li ved",
      "m ist",
      "y et",
      "play s",
      "Car ol",
      "H al",
      "H ot",
      "ail s",
      "ne cess",
      "he art",
      "in ent",
      "Mart in",
      "respect ively",
      "associ ated",
      "gr and",
      "K ent",
      "u ter",
      "attack ed",
      "act or",
      "Cent ral",
      "num erous",
      "199 5",
      "need ed",
      "an ch",
      "c ers",
      "r out",
      "Angel es",
      "stit ute",
      "C le",
      "c and",
      "ve h",
      "ul f",
      "n ature",
      "Fran cis",
      "sc ient",
      "friend s",
      "V er",
      "po ol",
      "dist ribut",
      "imp act",
      "laun ched",
      "Mon t",
      "stit ution",
      "constru cted",
      "dom in",
      "C y",
      "cond itions",
      "book s",
      "occur red",
      "st ep",
      "id er",
      "in formation",
      "cont ains",
      "s ales",
      "est ival",
      "sh own",
      "e ch",
      "Cong ress",
      "attempt ed",
      "u als",
      "um ents",
      "t ur",
      "2 nd",
      "ex am",
      "B ob",
      "ic ations",
      "pie ce",
      "stru ction",
      "R u",
      "sing er",
      "crit ical",
      "Pr ince",
      "201 6",
      "se cur"
    ]
  }
}