{
  "version": "1.0",
  "truncation": null,
  "padding": null,
  "added_tokens": [
    {
      "id": 0,
      "content": "[UNK]",
      "single_word": false,
      "lstrip": false,
      "rstrip": false,
      "normalized": false,
      "special": true
    },
    {
      "id": 1,
      "content": "[CLS]",
      "single_word": false,
      "lstrip": false,
      "rstrip": false,
      "normalized": false,
      "special": true
    },
    {
      "id": 2,
      "content": "[SEP]",
      "single_word": false,
      "lstrip": false,
      "rstrip": false,
      "normalized": false,
      "special": true
    },
    {
      "id": 3,
      "content": "[PAD]",
      "single_word": false,
      "lstrip": false,
      "rstrip": false,
      "normalized": false,
      "special": true
    },
    {
      "id": 4,
      "content": "[MASK]",
      "single_word": false,
      "lstrip": false,
      "rstrip": false,
      "normalized": false,
      "special": true
    }
  ],
  "normalizer": null,
  "pre_tokenizer": {
    "type": "Whitespace"
  },
  "post_processor": null,
  "decoder": null,
  "model": {
    "type": "BPE",
    "dropout": null,
    "unk_token": "[UNK]",
    "continuing_subword_prefix": null,
    "end_of_word_suffix": null,
    "fuse_unk": false,
    "vocab": {
      "[UNK]": 0,
      "[CLS]": 1,
      "[SEP]": 2,
      "[PAD]": 3,
      "[MASK]": 4,
      "!": 5,
      "\"": 6,
      "#": 7,
      "$": 8,
      "%": 9,
      "&": 10,
      "'": 11,
      "(": 12,
      ")": 13,
      "*": 14,
      "+": 15,
      ",": 16,
      "-": 17,
      ".": 18,
      "/": 19,
      "0": 20,
      "1": 21,
      "2": 22,
      "3": 23,
      "4": 24,
      "5": 25,
      "6": 26,
      "7": 27,
      "8": 28,
      "9": 29,
      ":": 30,
      ";": 31,
      "<": 32,
      "=": 33,
      ">": 34,
      "?": 35,
      "@": 36,
      "A": 37,
      "B": 38,
      "C": 39,
      "D": 40,
      "E": 41,
      "F": 42,
      "G": 43,
      "H": 44,
      "I": 45,
      "J": 46,
      "K": 47,
      "L": 48,
      "M": 49,
      "N": 50,
      "O": 51,
      "P": 52,
      "Q": 53,
      "R": 54,
      "S": 55,
      "T": 56,
      "U": 57,
      "V": 58,
      "W": 59,
      "X": 60,
      "Y": 61,
      "Z": 62,
      "[": 63,
      "\\": 64,
      "]": 65,
      "^": 66,
      "_": 67,
      "`": 68,
      "a": 69,
      "b": 70,
      "c": 71,
      "d": 72,
      "e": 73,
      "f": 74,
      "g": 75,
      "h": 76,
      "i": 77,
      "j": 78,
      "k": 79,
      "l": 80,
      "m": 81,
      "n": 82,
      "o": 83,
      "p": 84,
      "q": 85,
      "r": 86,
      "s": 87,
      "t": 88,
      "u": 89,
      "v": 90,
      "w": 91,
      "x": 92,
      "y": 93,
      "z": 94,
      "{": 95,
      "|": 96,
      "}": 97,
      "~": 98,
      "th": 99,
      "in": 100,
      "er": 101,
      "an": 102,
      "the": 103,
      "on": 104,
      "ed": 105,
      "re": 106,
      "at": 107,
      "en": 108,
      "or": 109,
      "al": 110,
      "st": 111,
      "ar": 112,
      "and": 113,
      "as": 114,
      "of": 115,
      "ing": 116,
      "es": 117,
      "to": 118,
      "is": 119,
      "it": 120,
      "ou": 121,
      "ic": 122,
      "ion": 123,
      "le": 124,
      "he": 125,
      "ro": 126,
      "il": 127,
      "ac": 128,
      "ent": 129,
      "ad": 130,
      "se": 131,
      "am": 132,
      "om": 133,
      "be": 134,
      "ly": 135,
      "was": 136,
      "for": 137,
      "ch": 138,
      "ve": 139,
      "de": 140,
      "ur": 141,
      "ol": 142,
      "ir": 143,
      "The": 144,
      "im": 145,
      "-@": 146,
      "@-@": 147,
      "ig": 148,
      "ver": 149,
      "ter": 150,
      "wh": 151,
      "ow": 152,
      "un": 153,
      "ith": 154,
      "ce": 155,
      "ay": 156,
      "id": 157,
      "con": 158,
      "ation": 159,
      "ct": 160,
      "with": 161,
      "ag": 162,
      "that": 163,
      "te": 164,
      "by": 165,
      "us": 166,
      "ot": 167,
      "el": 168,
      "ere": 169,
      "ri": 170,
      "ul": 171,
      "ap": 172,
      "et": 173,
      "ut": 174,
      "19": 175,
      "res": 176,
      "ain": 177,
      "ers": 178,
      "op": 179,
      "pl": 180,
      "com": 181,
      "his": 182,
      "rom": 183,
      "um": 184,
      "all": 185,
      "00": 186,
      "ab": 187,
      "oun": 188,
      "ist": 189,
      "mo": 190,
      "su": 191,
      "ne": 192,
      "sh": 193,
      "pro": 194,
      "pe": 195,
      "from": 196,
      "In": 197,
      "cl": 198,
      "ate": 199,
      "are": 200,
      "li": 201,
      "tr": 202,
      "art": 203,
      "ther": 204,
      "os": 205,
      "igh": 206,
      "em": 207,
      "di": 208,
      "ex": 209,
      "ber": 210,
      "est": 211,
      "ich": 212,
      "ak": 213,
      "ld": 214,
      "were": 215,
      "oc": 216,
      "ill": 217,
      "ard": 218,
      "ast": 219,
      "ies": 220,
      "ant": 221,
      "per": 222,
      "ong": 223,
      "qu": 224,
      "gh": 225,
      "ment": 226,
      "ated": 227,
      "man": 228,
      "ive": 229,
      "out": 230,
      "ame": 231,
      "ity": 232,
      "ess": 233,
      "fe": 234,
      "od": 235,
      "our": 236,
      "had": 237,
      "end": 238,
      "ish": 239,
      "ack": 240,
      "ort": 241,
      "one": 242,
      "als": 243,
      "av": 244,
      "ge": 245,
      "over": 246,
      "ear": 247,
      "tw": 248,
      "af": 249,
      "ip": 250,
      "which": 251,
      "ough": 252,
      "der": 253,
      "but": 254,
      "gr": 255,
      "not": 256,
      "vi": 257,
      "ass": 258,
      "act": 259,
      "ally": 260,
      "ound": 261,
      "ave": 262,
      "str": 263,
      "ine": 264,
      "ight": 265,
      "her": 266,
      "ary": 267,
      "rit": 268,
      "ud": 269,
      "its": 270,
      "iv": 271,
      "du": 272,
      "pr": 273,
      "ian": 274,
      "ep": 275,
      "if": 276,
      "St": 277,
      "Ch": 278,
      "ore": 279,
      "20": 280,
      "wor": 281,
      "fir": 282,
      "up": 283,
      "200": 284,
      "ew": 285,
      "ia": 286,
      "ould": 287,
      "cor": 288,
      "au": 289,
      "ous": 290,
      "own": 291,
      "bo": 292,
      "bl": 293,
      "aw": 294,
      "ach": 295,
      "ction": 296,
      "ev": 297,
      "comp": 298,
      "age": 299,
      "ke": 300,
      "att": 301,
      "land": 302,
      "first": 303,
      "port": 304,
      "ign": 305,
      "ition": 306,
      "form": 307,
      "si": 308,
      "their": 309,
      "ical": 310,
      "lo": 311,
      "low": 312,
      "ial": 313,
      "ser": 314,
      "tim": 315,
      "ll": 316,
      "po": 317,
      "ater": 318,
      "also": 319,
      "He": 320,
      "who": 321,
      "br": 322,
      "int": 323,
      "part": 324,
      "ure": 325,
      "18": 326,
      "cre": 327,
      "has": 328,
      "other": 329,
      "ans": 330,
      "have": 331,
      "ome": 332,
      "play": 333,
      "pt": 334,
      "ok": 335,
      "ust": 336,
      "off": 337,
      "cont": 338,
      ".@": 339,
      "@.@": 340,
      "two": 341,
      "ile": 342,
      "ree": 343,
      "ence": 344,
      "co": 345,
      "pres": 346,
      "uring": 347,
      "me": 348,
      "been": 349,
      "pre": 350,
      "ice": 351,
      "we": 352,
      "ance": 353,
      "mer": 354,
      "dis": 355,
      ",@": 356,
      "@,@": 357,
      "201": 358,
      "Th": 359,
      "pos": 360,
      "It": 361,
      "ph": 362,
      "this": 363,
      "ory": 364,
      "year": 365,
      "after": 366,
      "ult": 367,
      "ell": 368,
      "ren": 369,
      "des": 370,
      "ace": 371,
      "sc": 372,
      "ved": 373,
      "fin": 374,
      "ark": 375,
      "An": 376,
      "cent": 377,
      "able": 378,
      "ade": 379,
      "mon": 380,
      "they": 381,
      "incl": 382,
      "ue": 383,
      "ite": 384,
      "ang": 385,
      "ail": 386,
      "Un": 387,
      "work": 388,
      "ever": 389,
      "ced": 390,
      "ff": 391,
      "air": 392,
      "cr": 393,
      "sion": 394,
      "cord": 395,
      "time": 396,
      "sp": 397,
      "inter": 398,
      "urn": 399,
      "ations": 400,
      "would": 401,
      "ship": 402,
      "iz": 403,
      "into": 404,
      "him": 405,
      "ick": 406,
      "vel": 407,
      "spe": 408,
      "she": 409,
      "no": 410,
      "mber": 411,
      "ie": 412,
      "ates": 413,
      "ict": 414,
      "ased": 415,
      "more": 416,
      "ire": 417,
      "ilm": 418,
      "ited": 419,
      "min": 420,
      "old": 421,
      "ty": 422,
      "way": 423,
      "Ar": 424,
      "son": 425,
      "amp": 426,
      "ces": 427,
      "most": 428,
      "og": 429,
      "new": 430,
      "fore": 431,
      "main": 432,
      "Al": 433,
      "bec": 434,
      "ry": 435,
      "any": 436,
      "ten": 437,
      "ret": 438,
      "ase": 439,
      "used": 440,
      "ann": 441,
      "ason": 442,
      "fl": 443,
      "ood": 444,
      "includ": 445,
      "cond": 446,
      "cess": 447,
      "cted": 448,
      "ings": 449,
      "ran": 450,
      "ind": 451,
      "ath": 452,
      "vis": 453,
      "les": 454,
      "ors": 455,
      "red": 456,
      "day": 457,
      "film": 458,
      "when": 459,
      "ted": 460,
      "ton": 461,
      "col": 462,
      "ild": 463,
      "rough": 464,
      "comm": 465,
      "ake": 466,
      "ward": 467,
      "Mar": 468,
      "ob": 469,
      "ck": 470,
      "ican": 471,
      "ens": 472,
      "Au": 473,
      "ts": 474,
      "bu": 475,
      "gan": 476,
      "ra": 477,
      "though": 478,
      "sy": 479,
      "reg": 480,
      "ions": 481,
      "Re": 482,
      "een": 483,
      "Wh": 484,
      "De": 485,
      "during": 486,
      "than": 487,
      "On": 488,
      "ose": 489,
      "again": 490,
      "so": 491,
      "game": 492,
      "gen": 493,
      "under": 494,
      "ble": 495,
      "ubl": 496,
      "char": 497,
      "nor": 498,
      "produ": 499,
      "199": 500,
      "only": 501,
      "ollow": 502,
      "them": 503,
      "about": 504,
      "ide": 505,
      "row": 506,
      "can": 507,
      "ents": 508,
      "while": 509,
      "New": 510,
      "En": 511,
      "ational": 512,
      "oy": 513,
      "some": 514,
      "song": 515,
      "rele": 516,
      "later": 517,
      "led": 518,
      "ered": 519,
      "outh": 520,
      "ele": 521,
      "tween": 522,
      "between": 523,
      "10": 524,
      "sing": 525,
      "ron": 526,
      "ating": 527,
      "coun": 528,
      "three": 529,
      "Af": 530,
      "kn": 531,
      "where": 532,
      "through": 533,
      "num": 534,
      "aid": 535,
      "As": 536,
      "season": 537,
      "ics": 538,
      "ful": 539,
      "view": 540,
      "my": 541,
      "lar": 542,
      "cons": 543,
      "Amer": 544,
      "ern": 545,
      "tain": 546,
      "writ": 547,
      "sub": 548,
      "stru": 549,
      "ied": 550,
      "dr": 551,
      "Le": 552,
      "then": 553,
      "rel": 554,
      "ular": 555,
      "iver": 556,
      "000": 557,
      "ters": 558,
      "sel": 559,
      "Jo": 560,
      "high": 561,
      "second": 562,
      "med": 563,
      "set": 564,
      "made": 565,
      "Com": 566,
      "ef": 567,
      "cur": 568,
      "ames": 569,
      "bum": 570,
      "record": 571,
      "four": 572,
      "do": 573,
      "go": 574,
      "cap": 575,
      "follow": 576,
      "ub": 577,
      "ock": 578,
      "17": 579,
      "spec": 580,
      "call": 581,
      "such": 582,
      "car": 583,
      "sur": 584,
      "eng": 585,
      "ished": 586,
      "atch": 587,
      "No": 588,
      "back": 589,
      "before": 590,
      "there": 591,
      "team": 592,
      "well": 593,
      "15": 594,
      "ma": 595,
      "iel": 596,
      "mus": 597,
      "inn": 598,
      "ven": 599,
      "cho": 600,
      "years": 601,
      "Sh": 602,
      "appe": 603,
      "Con": 604,
      "add": 605,
      "pol": 606,
      "This": 607,
      "ros": 608,
      "Nor": 609,
      "ident": 610,
      "sup": 611,
      "ific": 612,
      "album": 613,
      "publ": 614,
      "reat": 615,
      "ily": 616,
      "owever": 617,
      "je": 618,
      "fer": 619,
      "gu": 620,
      "..": 621,
      "tem": 622,
      "ale": 623,
      "ual": 624,
      "ative": 625,
      "unt": 626,
      "many": 627,
      "point": 628,
      "being": 629,
      "epis": 630,
      "uary": 631,
      "ond": 632,
      "oup": 633,
      "ode": 634,
      "ek": 635,
      "ince": 636,
      "war": 637,
      "velop": 638,
      "ins": 639,
      "At": 640,
      "ury": 641,
      "against": 642,
      "use": 643,
      "number": 644,
      "ped": 645,
      "Be": 646,
      "side": 647,
      "lead": 648,
      "show": 649,
      "ft": 650,
      "charac": 651,
      "After": 652,
      "par": 653,
      "16": 654,
      "sever": 655,
      "loc": 656,
      "12": 657,
      "mem": 658,
      "ash": 659,
      "long": 660,
      "ause": 661,
      "appear": 662,
      "ious": 663,
      "io": 664,
      "rece": 665,
      "became": 666,
      "Brit": 667,
      "including": 668,
      "hn": 669,
      "like": 670,
      "cy": 671,
      "United": 672,
      "serv": 673,
      "ese": 674,
      "Se": 675,
      "both": 676,
      "cri": 677,
      "ise": 678,
      "series": 679,
      "ost": 680,
      "198": 681,
      "found": 682,
      "feat": 683,
      "known": 684,
      "mi": 685,
      "line": 686,
      "igin": 687,
      "cover": 688,
      "did": 689,
      "194": 690,
      "She": 691,
      "rop": 692,
      "ended": 693,
      "eral": 694,
      "az": 695,
      "develop": 696,
      "tri": 697,
      "ley": 698,
      "mill": 699,
      "cer": 700,
      "War": 701,
      "contin": 702,
      "ments": 703,
      "ities": 704,
      "dire": 705,
      "ures": 706,
      "30": 707,
      "down": 708,
      "Eng": 709,
      "run": 710,
      "suc": 711,
      "pop": 712,
      "head": 713,
      "mar": 714,
      "diff": 715,
      "Wor": 716,
      "road": 717,
      "John": 718,
      "For": 719,
      "uch": 720,
      "pass": 721,
      "ird": 722,
      "episode": 723,
      "said": 724,
      "leg": 725,
      "por": 726,
      "ouse": 727,
      "west": 728,
      "ress": 729,
      "mis": 730,
      "che": 731,
      "Ro": 732,
      "could": 733,
      "erson": 734,
      "ah": 735,
      "several": 736,
      "lin": 737,
      "American": 738,
      "Gr": 739,
      "peri": 740,
      "orn": 741,
      "ield": 742,
      "vol": 743,
      "vid": 744,
      "14": 745,
      "origin": 746,
      "called": 747,
      "197": 748,
      "II": 749,
      "ised": 750,
      "comple": 751,
      "rest": 752,
      "196": 753,
      "Br": 754,
      "ually": 755,
      "sign": 756,
      "stem": 757,
      "music": 758,
      "self": 759,
      "bed": 760,
      "cept": 761,
      "remain": 762,
      "return": 763,
      "ste": 764,
      "oper": 765,
      "began": 766,
      "Ger": 767,
      "13": 768,
      "design": 769,
      "try": 770,
      "ting": 771,
      "ank": 772,
      "ople": 773,
      "chool": 774,
      "men": 775,
      "hel": 776,
      "trans": 777,
      "dec": 778,
      "state": 779,
      "aking": 780,
      "early": 781,
      "ci": 782,
      "ball": 783,
      "Tr": 784,
      "released": 785,
      "near": 786,
      "dist": 787,
      "hy": 788,
      "Col": 789,
      "US": 790,
      "ived": 791,
      "descri": 792,
      "une": 793,
      "ject": 794,
      "until": 795,
      "olog": 796,
      "arr": 797,
      "open": 798,
      "success": 799,
      "plac": 800,
      "present": 801,
      "sm": 802,
      "hist": 803,
      "fam": 804,
      "ross": 805,
      "arch": 806,
      "gg": 807,
      "Cl": 808,
      "May": 809,
      "ists": 810,
      "band": 811,
      "offic": 812,
      "val": 813,
      "crit": 814,
      "less": 815,
      "get": 816,
      "overn": 817,
      "50": 818,
      "jor": 819,
      "group": 820,
      "gust": 821,
      "ms": 822,
      "may": 823,
      "vent": 824,
      "along": 825,
      "ves": 826,
      "nam": 827,
      "bers": 828,
      "ower": 829,
      "mil": 830,
      "tow": 831,
      "million": 832,
      "xt": 833,
      "British": 834,
      "bre": 835,
      "cast": 836,
      "order": 837,
      "sim": 838,
      "ving": 839,
      "Sep": 840,
      "enn": 841,
      "met": 842,
      "these": 843,
      "oci": 844,
      "come": 845,
      "ric": 846,
      "ather": 847,
      "ized": 848,
      "fect": 849,
      "ord": 850,
      "attack": 851,
      "cut": 852,
      "Sp": 853,
      "Car": 854,
      "cle": 855,
      "Bl": 856,
      "let": 857,
      "Wil": 858,
      "tember": 859,
      "sk": 860,
      "national": 861,
      "stral": 862,
      "und": 863,
      "September": 864,
      "now": 865,
      "World": 866,
      "August": 867,
      "ured": 868,
      "stor": 869,
      "requ": 870,
      "States": 871,
      "batt": 872,
      "took": 873,
      "Ju": 874,
      "continu": 875,
      "ib": 876,
      "large": 877,
      "same": 878,
      "people": 879,
      "oot": 880,
      "ca": 881,
      "var": 882,
      "character": 883,
      "grap": 884,
      "dep": 885,
      "because": 886,
      "vide": 887,
      "11": 888,
      "light": 889,
      "ism": 890,
      "position": 891,
      "ired": 892,
      "result": 893,
      "around": 894,
      "Ad": 895,
      "Oc": 896,
      "Is": 897,
      "start": 898,
      "km": 899,
      "ctor": 900,
      "class": 901,
      "aving": 902,
      "king": 903,
      "cour": 904,
      "ivers": 905,
      "Jan": 906,
      "oth": 907,
      "aim": 908,
      "pon": 909,
      "la": 910,
      "Austral": 911,
      "mark": 912,
      "formed": 913,
      "vision": 914,
      "support": 915,
      "build": 916,
      "Pl": 917,
      "ants": 918,
      "week": 919,
      "tal": 920,
      "following": 921,
      "north": 922,
      "rist": 923,
      "life": 924,
      "allow": 925,
      "system": 926,
      "six": 927,
      "However": 928,
      "Pr": 929,
      "ison": 930,
      "aft": 931,
      "track": 932,
      "Octo": 933,
      "prom": 934,
      "ork": 935,
      "consid": 936,
      "ys": 937,
      "each": 938,
      "received": 939,
      "ime": 940,
      "urch": 941,
      "ax": 942,
      "will": 943,
      "October": 944,
      "ained": 945,
      "West": 946,
      "ility": 947,
      "ium": 948,
      "place": 949,
      "ling": 950,
      "sol": 951,
      "very": 952,
      "govern": 953,
      "ars": 954,
      "thern": 955,
      "liam": 956,
      "five": 957,
      "just": 958,
      "stand": 959,
      "area": 960,
      "right": 961,
      "wards": 962,
      "century": 963,
      "ask": 964,
      "appro": 965,
      "Sc": 966,
      "They": 967,
      "def": 968,
      "By": 969,
      "ina": 970,
      "match": 971,
      "partic": 972,
      "ately": 973,
      "ple": 974,
      "North": 975,
      "report": 976,
      "city": 977,
      "York": 978,
      "world": 979,
      "rote": 980,
      "public": 981,
      "book": 982,
      "June": 983,
      "top": 984,
      "contro": 985,
      "giv": 986,
      "tle": 987,
      "ger": 988,
      "jo": 989,
      "small": 990,
      "major": 991,
      "field": 992,
      "cording": 993,
      "King": 994,
      "25": 995,
      "ground": 996,
      "July": 997,
      "Can": 998,
      "Man": 999,
      "last": 1000,
      "Nove": 1001,
      "organ": 1002,
      "November": 1003,
      "played": 1004,
      "what": 1005,
      "ner": 1006,
      "atter": 1007,
      "turn": 1008,
      "town": 1009,
      "tit": 1010,
      "Fe": 1011,
      "person": 1012,
      "since": 1013,
      "ional": 1014,
      "lish": 1015,
      "single": 1016,
      "gun": 1017,
      "read": 1018,
      "Apr": 1019,
      "east": 1020,
      "March": 1021,
      "sequ": 1022,
      "ik": 1023,
      "April": 1024,
      "reach": 1025,
      "aged": 1026,
      "ude": 1027,
      "Mc": 1028,
      "Ac": 1029,
      "Co": 1030,
      "arm": 1031,
      "even": 1032,
      "care": 1033,
      "hal": 1034,
      "ural": 1035,
      "pri": 1036,
      "Eu": 1037,
      "ster": 1038,
      "Ge": 1039,
      "won": 1040,
      "name": 1041,
      "bro": 1042,
      "dom": 1043,
      "lit": 1044,
      "power": 1045,
      "idge": 1046,
      "differ": 1047,
      "0s": 1048,
      "Coun": 1049,
      "vious": 1050,
      "ica": 1051,
      "ague": 1052,
      "Indi": 1053,
      "ined": 1054,
      "test": 1055,
      "final": 1056,
      "ref": 1057,
      "left": 1058,
      "ier": 1059,
      "South": 1060,
      "ru": 1061,
      "due": 1062,
      "Me": 1063,
      "Ph": 1064,
      "gre": 1065,
      "udi": 1066,
      "south": 1067,
      "ages": 1068,
      "event": 1069,
      "version": 1070,
      "During": 1071,
      "list": 1072,
      "school": 1073,
      "Dece": 1074,
      "aff": 1075,
      "Ste": 1076,
      "avy": 1077,
      "German": 1078,
      "December": 1079,
      "Ed": 1080,
      "third": 1081,
      "ilt": 1082,
      "water": 1083,
      "ets": 1084,
      "incre": 1085,
      "month": 1086,
      "We": 1087,
      "ision": 1088,
      "moved": 1089,
      "much": 1090,
      "child": 1091,
      "ons": 1092,
      "expl": 1093,
      "another": 1094,
      "ians": 1095,
      "named": 1096,
      "January": 1097,
      "included": 1098,
      "195": 1099,
      "Or": 1100,
      "based": 1101,
      "issu": 1102,
      "All": 1103,
      "claim": 1104,
      "ls": 1105,
      "camp": 1106,
      "wrote": 1107,
      "ales": 1108,
      "193": 1109,
      "ships": 1110,
      "government": 1111,
      "ane": 1112,
      "24": 1113,
      "home": 1114,
      "kill": 1115,
      "chan": 1116,
      "apan": 1117,
      "When": 1118,
      "Pe": 1119,
      "short": 1120,
      "story": 1121,
      "Gu": 1122,
      "bert": 1123,
      "ially": 1124,
      "death": 1125,
      "app": 1126,
      "ute": 1127,
      "ically": 1128,
      "Pro": 1129,
      "ature": 1130,
      "ought": 1131,
      "Japan": 1132,
      "ody": 1133,
      "roy": 1134,
      "ext": 1135,
      "press": 1136,
      "using": 1137,
      "make": 1138,
      "tempt": 1139,
      "oss": 1140,
      "ital": 1141,
      "family": 1142,
      "review": 1143,
      "hand": 1144,
      "flu": 1145,
      "species": 1146,
      "house": 1147,
      "pect": 1148,
      "ution": 1149,
      "ney": 1150,
      "ement": 1151,
      "described": 1152,
      "ards": 1153,
      "rench": 1154,
      "fact": 1155,
      "dam": 1156,
      "previous": 1157,
      "...": 1158,
      "dest": 1159,
      "rown": 1160,
      "Bo": 1161,
      "ene": 1162,
      "Euro": 1163,
      "late": 1164,
      "forman": 1165,
      "beli": 1166,
      "thing": 1167,
      "real": 1168,
      "urther": 1169,
      "ler": 1170,
      "built": 1171,
      "cas": 1172,
      "gener": 1173,
      "ilar": 1174,
      "ness": 1175,
      "ified": 1176,
      "former": 1177,
      "best": 1178,
      "mp": 1179,
      "tak": 1180,
      "oute": 1181,
      "attempt": 1182,
      "placed": 1183,
      "games": 1184,
      "colle": 1185,
      "tract": 1186,
      "Mon": 1187,
      "polit": 1188,
      "ared": 1189,
      "held": 1190,
      "command": 1191,
      "ats": 1192,
      "Par": 1193,
      "put": 1194,
      "ety": 1195,
      "stud": 1196,
      "stit": 1197,
      "ford": 1198,
      "still": 1199,
      "His": 1200,
      "vo": 1201,
      "original": 1202,
      "gram": 1203,
      "those": 1204,
      "lim": 1205,
      "den": 1206,
      "constru": 1207,
      "addition": 1208,
      "augh": 1209,
      "Febr": 1210,
      "February": 1211,
      "gy": 1212,
      "fel": 1213,
      "next": 1214,
      "ently": 1215,
      "effect": 1216,
      "Christ": 1217,
      "ator": 1218,
      "22": 1219,
      "mid": 1220,
      "fall": 1221,
      "thor": 1222,
      "There": 1223,
      "fri": 1224,
      "performan": 1225,
      "100": 1226,
      "ham": 1227,
      "members": 1228,
      "sent": 1229,
      "rican": 1230,
      "ences": 1231,
      "ctions": 1232,
      "van": 1233,
      "Gen": 1234,
      "inc": 1235,
      "National": 1236,
      "ush": 1237,
      "mit": 1238,
      "Li": 1239,
      "Europe": 1240,
      "21": 1241,
      "bur": 1242,
      "iversity": 1243,
      "days": 1244,
      "period": 1245,
      "within": 1246,
      "ched": 1247,
      "ines": 1248,
      "French": 1249,
      "role": 1250,
      "release": 1251,
      "ze": 1252,
      "init": 1253,
      "although": 1254,
      "move": 1255,
      "wind": 1256,
      "video": 1257,
      "hip": 1258,
      "say": 1259,
      "rank": 1260,
      "half": 1261,
      "2010": 1262,
      "23": 1263,
      "na": 1264,
      "estab": 1265,
      "Her": 1266,
      "came": 1267,
      "Ser": 1268,
      "arri": 1269,
      "ps": 1270,
      "And": 1271,
      "ink": 1272,
      "wom": 1273,
      "William": 1274,
      "ropical": 1275,
      "continued": 1276,
      "law": 1277,
      "ali": 1278,
      "27": 1279,
      "craft": 1280,
      "aining": 1281,
      "ris": 1282,
      "ning": 1283,
      "ains": 1284,
      "hum": 1285,
      "uss": 1286,
      "round": 1287,
      "ulation": 1288,
      "ribut": 1289,
      "ones": 1290,
      "win": 1291,
      "sou": 1292,
      "posed": 1293,
      "however": 1294,
      "ending": 1295,
      "sen": 1296,
      "itary": 1297,
      "2008": 1298,
      "28": 1299,
      "fac": 1300,
      "ral": 1301,
      "inning": 1302,
      "uc": 1303,
      "2009": 1304,
      "Geor": 1305,
      "often": 1306,
      "you": 1307,
      "ried": 1308,
      "few": 1309,
      "rad": 1310,
      "ister": 1311,
      "imes": 1312,
      "equ": 1313,
      "mag": 1314,
      "Bar": 1315,
      "stri": 1316,
      "ampion": 1317,
      "take": 1318,
      "ix": 1319,
      "wood": 1320,
      "friend": 1321,
      "Des": 1322,
      "local": 1323,
      "Ear": 1324,
      "player": 1325,
      "2011": 1326,
      "Air": 1327,
      "similar": 1328,
      "26": 1329,
      "40": 1330,
      "among": 1331,
      "beg": 1332,
      "Inter": 1333,
      "production": 1334,
      "Mich": 1335,
      "ior": 1336,
      "ony": 1337,
      "force": 1338,
      "pite": 1339,
      "went": 1340,
      "different": 1341,
      "atic": 1342,
      "ove": 1343,
      "Char": 1344,
      "chang": 1345,
      "ery": 1346,
      "mission": 1347,
      "ides": 1348,
      "possi": 1349,
      "England": 1350,
      "storm": 1351,
      "One": 1352,
      "strong": 1353,
      "further": 1354,
      "night": 1355,
      "Har": 1356,
      "Mus": 1357,
      "post": 1358,
      "sty": 1359,
      "considered": 1360,
      "ae": 1361,
      "company": 1362,
      "Dav": 1363,
      "level": 1364,
      "served": 1365,
      "fire": 1366,
      "ices": 1367,
      "aver": 1368,
      "2007": 1369,
      "ided": 1370,
      "career": 1371,
      "uck": 1372,
      "ung": 1373,
      "ai": 1374,
      "ively": 1375,
      "provid": 1376,
      "City": 1377,
      "East": 1378,
      "having": 1379,
      "fort": 1380,
      "Park": 1381,
      "action": 1382,
      "ged": 1383,
      "ient": 1384,
      "commun": 1385,
      "exp": 1386,
      "trad": 1387,
      "Fr": 1388,
      "tele": 1389,
      "English": 1390,
      "que": 1391,
      "fron": 1392,
      "enter": 1393,
      "ops": 1394,
      "So": 1395,
      "club": 1396,
      "every": 1397,
      "ives": 1398,
      "hold": 1399,
      "without": 1400,
      "history": 1401,
      "refer": 1402,
      "Although": 1403,
      "lands": 1404,
      "studi": 1405,
      "wide": 1406,
      "graph": 1407,
      "written": 1408,
      "Scot": 1409,
      "2012": 1410,
      "stead": 1411,
      "become": 1412,
      "board": 1413,
      "29": 1414,
      "reet": 1415,
      "respon": 1416,
      "Lond": 1417,
      "influ": 1418,
      "Ang": 1419,
      "London": 1420,
      "foot": 1421,
      "sound": 1422,
      "Ex": 1423,
      "scor": 1424,
      "With": 1425,
      "ggest": 1426,
      "iss": 1427,
      "River": 1428,
      "Mo": 1429,
      "Batt": 1430,
      "invol": 1431,
      "suggest": 1432,
      "ington": 1433,
      "190": 1434,
      "bor": 1435,
      "tro": 1436,
      "Ne": 1437,
      "given": 1438,
      "bus": 1439,
      "prof": 1440,
      "announ": 1441,
      "divid": 1442,
      "oung": 1443,
      "mand": 1444,
      "key": 1445,
      "ds": 1446,
      "Te": 1447,
      "want": 1448,
      "Sy": 1449,
      "cial": 1450,
      "To": 1451,
      "cop": 1452,
      "comb": 1453,
      "ug": 1454,
      "building": 1455,
      "change": 1456,
      "High": 1457,
      "Canad": 1458,
      "imp": 1459,
      "Fl": 1460,
      "fr": 1461,
      "iment": 1462,
      "father": 1463,
      "gave": 1464,
      "successful": 1465,
      "common": 1466,
      "published": 1467,
      "close": 1468,
      "Pol": 1469,
      "University": 1470,
      "import": 1471,
      "stated": 1472,
      "seven": 1473,
      "sure": 1474,
      "good": 1475,
      "gn": 1476,
      "never": 1477,
      "While": 1478,
      "ailed": 1479,
      "returned": 1480,
      "anim": 1481,
      "beh": 1482,
      "omin": 1483,
      "produced": 1484,
      "total": 1485,
      "author": 1486,
      "face": 1487,
      "prote": 1488,
      "country": 1489,
      "del": 1490,
      "bar": 1491,
      "eved": 1492,
      "away": 1493,
      "see": 1494,
      "hour": 1495,
      "aren": 1496,
      "quad": 1497,
      "Cor": 1498,
      "sit": 1499,
      "popular": 1500,
      "tour": 1501,
      "omet": 1502,
      "aur": 1503,
      "ably": 1504,
      "fun": 1505,
      "reported": 1506,
      "Div": 1507,
      "Dr": 1508,
      "dri": 1509,
      "lost": 1510,
      "2006": 1511,
      "program": 1512,
      "capt": 1513,
      "chn": 1514,
      "compos": 1515,
      "great": 1516,
      "aign": 1517,
      "ways": 1518,
      "vest": 1519,
      "particular": 1520,
      "ama": 1521,
      "draw": 1522,
      "ks": 1523,
      "making": 1524,
      "rent": 1525,
      "vers": 1526,
      "include": 1527,
      "ened": 1528,
      "how": 1529,
      "According": 1530,
      "decl": 1531,
      "soci": 1532,
      "interest": 1533,
      "struct": 1534,
      "ology": 1535,
      "recorded": 1536,
      "indu": 1537,
      "covered": 1538,
      "ox": 1539,
      "fle": 1540,
      "forces": 1541,
      "need": 1542,
      "vict": 1543,
      "direct": 1544,
      "body": 1545,
      "urrican": 1546,
      "itions": 1547,
      "Am": 1548,
      "site": 1549,
      "Phil": 1550,
      "should": 1551,
      "plan": 1552,
      "voc": 1553,
      "ploy": 1554,
      "quar": 1555,
      "service": 1556,
      "ument": 1557,
      "suff": 1558,
      "moder": 1559,
      "performance": 1560,
      "died": 1561,
      "teen": 1562,
      "times": 1563,
      "net": 1564,
      "These": 1565,
      "grad": 1566,
      "ana": 1567,
      "coming": 1568,
      "fan": 1569,
      "rock": 1570,
      "pen": 1571,
      "ned": 1572,
      "Roy": 1573,
      "aircraft": 1574,
      "sum": 1575,
      "himself": 1576,
      "2013": 1577,
      "tell": 1578,
      "intro": 1579,
      "military": 1580,
      "flo": 1581,
      "pur": 1582,
      "iness": 1583,
      "Jack": 1584,
      "depend": 1585,
      "Australia": 1586,
      "room": 1587,
      "battle": 1588,
      "bas": 1589,
      "agre": 1590,
      "aul": 1591,
      "Pres": 1592,
      "songs": 1593,
      "aster": 1594,
      "elect": 1595,
      "Min": 1596,
      "member": 1597,
      "Rep": 1598,
      "cing": 1599,
      "itch": 1600,
      "gl": 1601,
      "critic": 1602,
      "development": 1603,
      "General": 1604,
      "BC": 1605,
      "State": 1606,
      "xim": 1607,
      "search": 1608,
      "front": 1609,
      "alth": 1610,
      "represent": 1611,
      "ael": 1612,
      "sw": 1613,
      "189": 1614,
      "itive": 1615,
      "look": 1616,
      "ges": 1617,
      "60": 1618,
      "acy": 1619,
      "sl": 1620,
      "akes": 1621,
      "histor": 1622,
      "James": 1623,
      "developed": 1624,
      "istr": 1625,
      "vir": 1626,
      "Rom": 1627,
      "medi": 1628,
      "control": 1629,
      "introdu": 1630,
      "destroy": 1631,
      "star": 1632,
      "nal": 1633,
      "children": 1634,
      "Gre": 1635,
      "remained": 1636,
      "Sm": 1637,
      "ption": 1638,
      "range": 1639,
      "fav": 1640,
      "characters": 1641,
      "Army": 1642,
      "chart": 1643,
      "title": 1644,
      "ored": 1645,
      "rew": 1646,
      "mm": 1647,
      "clear": 1648,
      "months": 1649,
      "Su": 1650,
      "ey": 1651,
      "ising": 1652,
      "ues": 1653,
      "ither": 1654,
      "rap": 1655,
      "ille": 1656,
      "ense": 1657,
      "campaign": 1658,
      "occur": 1659,
      "ability": 1660,
      "League": 1661,
      "cult": 1662,
      "urricane": 1663,
      "cir": 1664,
      "taken": 1665,
      "omb": 1666,
      "eight": 1667,
      "gether": 1668,
      "compet": 1669,
      "felt": 1670,
      "ots": 1671,
      "tropical": 1672,
      "signific": 1673,
      "writing": 1674,
      "across": 1675,
      "seen": 1676,
      "project": 1677,
      "Cap": 1678,
      "tar": 1679,
      "pra": 1680,
      "ering": 1681,
      "bridge": 1682,
      "station": 1683,
      "gest": 1684,
      "too": 1685,
      "created": 1686,
      "Tw": 1687,
      "America": 1688,
      "appeared": 1689,
      "announced": 1690,
      "noted": 1691,
      "alter": 1692,
      "Division": 1693,
      "Sw": 1694,
      "George": 1695,
      "reached": 1696,
      "appoint": 1697,
      "cil": 1698,
      "Hen": 1699,
      "hor": 1700,
      "gin": 1701,
      "experi": 1702,
      "activ": 1703,
      "County": 1704,
      "uses": 1705,
      "works": 1706,
      "areas": 1707,
      "ov": 1708,
      "television": 1709,
      "saw": 1710,
      "Per": 1711,
      "Ma": 1712,
      "fight": 1713,
      "2005": 1714,
      "Road": 1715,
      "Japanese": 1716,
      "lect": 1717,
      "prim": 1718,
      "cost": 1719,
      "performed": 1720,
      "ream": 1721,
      "various": 1722,
      "political": 1723,
      "break": 1724,
      "Street": 1725,
      "complete": 1726,
      "followed": 1727,
      "har": 1728,
      "full": 1729,
      "iting": 1730,
      "ality": 1731,
      "race": 1732,
      "players": 1733,
      "ago": 1734,
      "trave": 1735,
      "style": 1736,
      "2014": 1737,
      "inv": 1738,
      "mb": 1739,
      "mot": 1740,
      "arded": 1741,
      "abor": 1742,
      "black": 1743,
      "process": 1744,
      "mph": 1745,
      "mix": 1746,
      "non": 1747,
      "Mad": 1748,
      "antic": 1749,
      "wall": 1750,
      "oto": 1751,
      "points": 1752,
      "killed": 1753,
      "ief": 1754,
      "ization": 1755,
      "help": 1756,
      "hit": 1757,
      "bet": 1758,
      "bel": 1759,
      "crew": 1760,
      "lines": 1761,
      "live": 1762,
      "lished": 1763,
      "sess": 1764,
      "throughout": 1765,
      "sex": 1766,
      "techn": 1767,
      "stat": 1768,
      "together": 1769,
      "formation": 1770,
      "cru": 1771,
      "debut": 1772,
      "little": 1773,
      "El": 1774,
      "fem": 1775,
      "established": 1776,
      "significant": 1777,
      "meet": 1778,
      "broad": 1779,
      "tra": 1780,
      "Thom": 1781,
      "ull": 1782,
      "icult": 1783,
      "coast": 1784,
      "thought": 1785,
      "construction": 1786,
      "aval": 1787,
      "far": 1788,
      "find": 1789,
      "Reg": 1790,
      "pair": 1791,
      "miles": 1792,
      "earli": 1793,
      "does": 1794,
      "enced": 1795,
      "impro": 1796,
      "born": 1797,
      "David": 1798,
      "odes": 1799,
      "got": 1800,
      "Michael": 1801,
      "pain": 1802,
      "entire": 1803,
      "ission": 1804,
      "Australian": 1805,
      "stage": 1806,
      "rain": 1807,
      "ators": 1808,
      "young": 1809,
      "Rich": 1810,
      "relation": 1811,
      "San": 1812,
      "Med": 1813,
      "special": 1814,
      "women": 1815,
      "conom": 1816,
      "route": 1817,
      "Qu": 1818,
      "conne": 1819,
      "decided": 1820,
      "Bill": 1821,
      "acc": 1822,
      "You": 1823,
      "Part": 1824,
      "ivil": 1825,
      "case": 1826,
      "ible": 1827,
      "ances": 1828,
      "80": 1829,
      "caused": 1830,
      "started": 1831,
      "general": 1832,
      "ho": 1833,
      "sell": 1834,
      "playing": 1835,
      "features": 1836,
      "Fin": 1837,
      "white": 1838,
      "grow": 1839,
      "House": 1840,
      "aves": 1841,
      "once": 1842,
      "eventually": 1843,
      "tee": 1844,
      "pat": 1845,
      "ample": 1846,
      "isted": 1847,
      "manag": 1848,
      "Sch": 1849,
      "host": 1850,
      "sold": 1851,
      "stant": 1852,
      "Lu": 1853,
      "feet": 1854,
      "Royal": 1855,
      "added": 1856,
      "opened": 1857,
      "ald": 1858,
      "modern": 1859,
      "located": 1860,
      "termin": 1861,
      "My": 1862,
      "Hist": 1863,
      "itar": 1864,
      "idence": 1865,
      "inj": 1866,
      "base": 1867,
      "ife": 1868,
      "quadron": 1869,
      "ampionship": 1870,
      "vari": 1871,
      "Some": 1872,
      "adv": 1873,
      "disc": 1874,
      "Ital": 1875,
      "instead": 1876,
      "Po": 1877,
      "ensive": 1878,
      "Don": 1879,
      "Mal": 1880,
      "yn": 1881,
      "clos": 1882,
      "Black": 1883,
      "peak": 1884,
      "hon": 1885,
      "cret": 1886,
      "Music": 1887,
      "important": 1888,
      "current": 1889,
      "utes": 1890,
      "section": 1891,
      "theast": 1892,
      "Ber": 1893,
      "ata": 1894,
      "Comp": 1895,
      "Bel": 1896,
      "cross": 1897,
      "ocial": 1898,
      "moun": 1899,
      "urb": 1900,
      "completed": 1901,
      "possible": 1902,
      "ends": 1903,
      "ination": 1904,
      "els": 1905,
      "ring": 1906,
      "worked": 1907,
      "oney": 1908,
      "cogn": 1909,
      "ying": 1910,
      "don": 1911,
      "others": 1912,
      "cause": 1913,
      "era": 1914,
      "free": 1915,
      "population": 1916,
      "2004": 1917,
      "pred": 1918,
      "audi": 1919,
      "mater": 1920,
      "Hol": 1921,
      "fig": 1922,
      "lled": 1923,
      "pie": 1924,
      "leading": 1925,
      "tre": 1926,
      "typ": 1927,
      "quest": 1928,
      "31": 1929,
      "oted": 1930,
      "Ab": 1931,
      "loss": 1932,
      "rather": 1933,
      "church": 1934,
      "guns": 1935,
      "behind": 1936,
      "dle": 1937,
      "scri": 1938,
      "ches": 1939,
      "Robert": 1940,
      "upon": 1941,
      "ceed": 1942,
      "pract": 1943,
      "Cr": 1944,
      "70": 1945,
      "forced": 1946,
      "lie": 1947,
      "comment": 1948,
      "lack": 1949,
      "alk": 1950,
      "mother": 1951,
      "invest": 1952,
      "France": 1953,
      "fif": 1954,
      "ino": 1955,
      "amb": 1956,
      "Cent": 1957,
      "2015": 1958,
      "ays": 1959,
      "know": 1960,
      "vill": 1961,
      "heavy": 1962,
      "NA": 1963,
      "ming": 1964,
      "Act": 1965,
      "ecut": 1966,
      "party": 1967,
      "School": 1968,
      "respect": 1969,
      "novel": 1970,
      "subsequ": 1971,
      "Russ": 1972,
      "proble": 1973,
      "35": 1974,
      "Vi": 1975,
      "reve": 1976,
      "accept": 1977,
      "difficult": 1978,
      "Wash": 1979,
      "human": 1980,
      "working": 1981,
      "hard": 1982,
      "separ": 1983,
      "associ": 1984,
      "joined": 1985,
      "weeks": 1986,
      "Mor": 1987,
      "term": 1988,
      "Ham": 1989,
      "Henry": 1990,
      "coll": 1991,
      "scene": 1992,
      "originally": 1993,
      "avail": 1994,
      "Ale": 1995,
      "Em": 1996,
      "asing": 1997,
      "ories": 1998,
      "angu": 1999,
      "pression": 2000,
      "scored": 2001,
      "almost": 2002,
      "inst": 2003,
      "188": 2004,
      "damage": 2005,
      "ties": 2006,
      "spir": 2007,
      "gar": 2008,
      "Battle": 2009,
      "mass": 2010,
      "allowed": 2011,
      "ids": 2012,
      "ival": 2013,
      "fourth": 2014,
      "Best": 2015,
      "Spe": 2016,
      "ament": 2017,
      "Red": 2018,
      "igned": 2019,
      "approach": 2020,
      "ready": 2021,
      "provided": 2022,
      "Vir": 2023,
      "engine": 2024,
      "Fir": 2025,
      "goal": 2026,
      "drop": 2027,
      "lower": 2028,
      "ope": 2029,
      "Mil": 2030,
      "Port": 2031,
      "claimed": 2032,
      "super": 2033,
      "TV": 2034,
      "cup": 2035,
      "wanted": 2036,
      "regular": 2037,
      "Dan": 2038,
      "Paul": 2039,
      "employ": 2040,
      "500": 2041,
      "cell": 2042,
      "Mac": 2043,
      "brought": 2044,
      "Que": 2045,
      "nat": 2046,
      "aps": 2047,
      "tradition": 2048,
      "ula": 2049,
      "Cour": 2050,
      "Gl": 2051,
      "compan": 2052,
      "Fran": 2053,
      "bal": 2054,
      "individ": 2055,
      "featured": 2056,
      "President": 2057,
      "least": 2058,
      "laun": 2059,
      "wife": 2060,
      "hest": 2061,
      "econom": 2062,
      "average": 2063,
      "soon": 2064,
      "passed": 2065,
      "business": 2066,
      "cred": 2067,
      "towards": 2068,
      "region": 2069,
      "reek": 2070,
      "runs": 2071,
      "tempor": 2072,
      "aut": 2073,
      "Washington": 2074,
      "recogn": 2075,
      "Play": 2076,
      "court": 2077,
      "critics": 2078,
      "azine": 2079,
      "western": 2080,
      "cts": 2081,
      "redu": 2082,
      "186": 2083,
      "quick": 2084,
      "counter": 2085,
      "estim": 2086,
      "office": 2087,
      "either": 2088,
      "contract": 2089,
      "profess": 2090,
      "Res": 2091,
      "sour": 2092,
      "forms": 2093,
      "plann": 2094,
      "defe": 2095,
      "emy": 2096,
      "rail": 2097,
      "uel": 2098,
      "leng": 2099,
      "example": 2100,
      "Je": 2101,
      "uk": 2102,
      "Angel": 2103,
      "nomin": 2104,
      "nia": 2105,
      "Other": 2106,
      "icated": 2107,
      "foc": 2108,
      "mult": 2109,
      "troops": 2110,
      "dou": 2111,
      "rid": 2112,
      "finished": 2113,
      "ades": 2114,
      "ico": 2115,
      "army": 2116,
      "scre": 2117,
      "hom": 2118,
      "asy": 2119,
      "2003": 2120,
      "Despite": 2121,
      "concl": 2122,
      "rul": 2123,
      "mal": 2124,
      "shot": 2125,
      "unk": 2126,
      "Follow": 2127,
      "Game": 2128,
      "circ": 2129,
      "generally": 2130,
      "mun": 2131,
      "ials": 2132,
      "ills": 2133,
      "proper": 2134,
      "condu": 2135,
      "whe": 2136,
      "det": 2137,
      "fre": 2138,
      "aper": 2139,
      "bes": 2140,
      "ply": 2141,
      "osp": 2142,
      "cycl": 2143,
      "sea": 2144,
      "anti": 2145,
      "Colle": 2146,
      "fed": 2147,
      "compl": 2148,
      "length": 2149,
      "events": 2150,
      "cert": 2151,
      "believed": 2152,
      "Cup": 2153,
      "keep": 2154,
      "Star": 2155,
      "First": 2156,
      "ha": 2157,
      "particip": 2158,
      "aled": 2159,
      "Following": 2160,
      "parts": 2161,
      "Mary": 2162,
      "tic": 2163,
      "fund": 2164,
      "scen": 2165,
      "ping": 2166,
      "ius": 2167,
      "ention": 2168,
      "victory": 2169,
      "replaced": 2170,
      "cially": 2171,
      "bound": 2172,
      "nine": 2173,
      "45": 2174,
      "tor": 2175,
      "designed": 2176,
      "iction": 2177,
      "available": 2178,
      "island": 2179,
      "Dep": 2180,
      "75": 2181,
      "ological": 2182,
      "official": 2183,
      "itor": 2184,
      "Lou": 2185,
      "sele": 2186,
      "hours": 2187,
      "evol": 2188,
      "European": 2189,
      "conc": 2190,
      "involved": 2191,
      "president": 2192,
      "Two": 2193,
      "hab": 2194,
      "opening": 2195,
      "Mer": 2196,
      "prison": 2197,
      "Sun": 2198,
      "stop": 2199,
      "bri": 2200,
      "ential": 2201,
      "ports": 2202,
      "ta": 2203,
      "asked": 2204,
      "hous": 2205,
      "certain": 2206,
      "istic": 2207,
      "tel": 2208,
      "turned": 2209,
      "stone": 2210,
      "execut": 2211,
      "comes": 2212,
      "erous": 2213,
      "cal": 2214,
      "exist": 2215,
      "director": 2216,
      "Roman": 2217,
      "ville": 2218,
      "saying": 2219,
      "threat": 2220,
      "2000": 2221,
      "commit": 2222,
      "appearance": 2223,
      "park": 2224,
      "love": 2225,
      "nd": 2226,
      "ighest": 2227,
      "watch": 2228,
      "Mid": 2229,
      "minutes": 2230,
      "writer": 2231,
      "ount": 2232,
      "largest": 2233,
      "highway": 2234,
      "sil": 2235,
      "southern": 2236,
      "Route": 2237,
      "Scott": 2238,
      "taking": 2239,
      "mir": 2240,
      "ize": 2241,
      "commer": 2242,
      "ishing": 2243,
      "Val": 2244,
      "ublic": 2245,
      "going": 2246,
      "survi": 2247,
      "highest": 2248,
      "From": 2249,
      "2001": 2250,
      "earlier": 2251,
      "Atl": 2252,
      "Sing": 2253,
      "Do": 2254,
      "initially": 2255,
      "percent": 2256,
      "vice": 2257,
      "particularly": 2258,
      "training": 2259,
      "White": 2260,
      "ership": 2261,
      "bit": 2262,
      "lear": 2263,
      "Mag": 2264,
      "Mart": 2265,
      "lying": 2266,
      "90": 2267,
      "graphy": 2268,
      "educ": 2269,
      "box": 2270,
      "must": 2271,
      "Church": 2272,
      "assist": 2273,
      "ordered": 2274,
      "pot": 2275,
      "issue": 2276,
      "Charles": 2277,
      "Kingdom": 2278,
      "Navy": 2279,
      "aj": 2280,
      "signed": 2281,
      "thus": 2282,
      "hib": 2283,
      "ateg": 2284,
      "pond": 2285,
      "pers": 2286,
      "Off": 2287,
      "Hall": 2288,
      "Thomas": 2289,
      "weak": 2290,
      "social": 2291,
      "central": 2292,
      "tries": 2293,
      "za": 2294,
      "uture": 2295,
      "ency": 2296,
      "ape": 2297,
      "speed": 2298,
      "maintain": 2299,
      "studio": 2300,
      "praised": 2301,
      "bow": 2302,
      "Dis": 2303,
      "pected": 2304,
      "alifor": 2305,
      "International": 2306,
      "bill": 2307,
      "ification": 2308,
      "Smith": 2309,
      "But": 2310,
      "date": 2311,
      "langu": 2312,
      "gress": 2313,
      "ception": 2314,
      "reason": 2315,
      "Virgin": 2316,
      "Cam": 2317,
      "increased": 2318,
      "deal": 2319,
      "AA": 2320,
      "past": 2321,
      "northern": 2322,
      "hurricane": 2323,
      "units": 2324,
      "research": 2325,
      "Pal": 2326,
      "2002": 2327,
      "rac": 2328,
      "vin": 2329,
      "relig": 2330,
      "via": 2331,
      "Bay": 2332,
      "type": 2333,
      "stry": 2334,
      "depart": 2335,
      "meas": 2336,
      "Canada": 2337,
      "pay": 2338,
      "deli": 2339,
      "Bur": 2340,
      "Califor": 2341,
      "commission": 2342,
      "agon": 2343,
      "Pri": 2344,
      "rian": 2345,
      "Sam": 2346,
      "hol": 2347,
      "Rock": 2348,
      "Bro": 2349,
      "Ho": 2350,
      "mean": 2351,
      "immedi": 2352,
      "omer": 2353,
      "ayed": 2354,
      "daugh": 2355,
      "acqu": 2356,
      "Du": 2357,
      "Sen": 2358,
      "ilities": 2359,
      "relationship": 2360,
      "imin": 2361,
      "fantry": 2362,
      "Peter": 2363,
      "Richard": 2364,
      "pressed": 2365,
      "bomb": 2366,
      "independ": 2367,
      "Alex": 2368,
      "Mi": 2369,
      "usually": 2370,
      "told": 2371,
      "better": 2372,
      "Indian": 2373,
      "Sal": 2374,
      "California": 2375,
      "icket": 2376,
      "sat": 2377,
      "Sk": 2378,
      "enough": 2379,
      "nel": 2380,
      "states": 2381,
      "winds": 2382,
      "Union": 2383,
      "Ben": 2384,
      "aring": 2385,
      "sed": 2386,
      "rup": 2387,
      "positive": 2388,
      "jour": 2389,
      "God": 2390,
      "Court": 2391,
      "Brown": 2392,
      "sal": 2393,
      "Island": 2394,
      "concern": 2395,
      "ston": 2396,
      "spent": 2397,
      "ume": 2398,
      "phys": 2399,
      "according": 2400,
      "ference": 2401,
      "appointed": 2402,
      "Tom": 2403,
      "above": 2404,
      "icle": 2405,
      "arily": 2406,
      "films": 2407,
      "feel": 2408,
      "tion": 2409,
      "Ap": 2410,
      "outside": 2411,
      "Str": 2412,
      "Great": 2413,
      "Cong": 2414,
      "accoun": 2415,
      "football": 2416,
      "bird": 2417,
      "anks": 2418,
      "Award": 2419,
      "ener": 2420,
      "quare": 2421,
      "lay": 2422,
      "previously": 2423,
      "recording": 2424,
      "active": 2425,
      "mur": 2426,
      "responsi": 2427,
      "standing": 2428,
      "Associ": 2429,
      "contribut": 2430,
      "load": 2431,
      "usion": 2432,
      "defin": 2433,
      "access": 2434,
      "failed": 2435,
      "Pre": 2436,
      "sey": 2437,
      "Company": 2438,
      "required": 2439,
      "elements": 2440,
      "ems": 2441,
      "reng": 2442,
      "occup": 2443,
      "187": 2444,
      "NY": 2445,
      "ken": 2446,
      "treat": 2447,
      "Ter": 2448,
      "overnor": 2449,
      "gir": 2450,
      "India": 2451,
      "Vict": 2452,
      "Germany": 2453,
      "reviews": 2454,
      "viol": 2455,
      "ga": 2456,
      "directed": 2457,
      "Sou": 2458,
      "ida": 2459,
      "atin": 2460,
      "Mark": 2461,
      "interview": 2462,
      "alion": 2463,
      "word": 2464,
      "ique": 2465,
      "ometimes": 2466,
      "III": 2467,
      "Christian": 2468,
      "itself": 2469,
      "give": 2470,
      "groups": 2471,
      "vert": 2472,
      "reme": 2473,
      "aters": 2474,
      "inner": 2475,
      "score": 2476,
      "despite": 2477,
      "respond": 2478,
      "bour": 2479,
      "thod": 2480,
      "Frank": 2481,
      "Times": 2482,
      "Sim": 2483,
      "prob": 2484,
      "UK": 2485,
      "La": 2486,
      "onto": 2487,
      "perform": 2488,
      "ns": 2489,
      "Cast": 2490,
      "Ke": 2491,
      "idea": 2492,
      "space": 2493,
      "beginning": 2494,
      "introduced": 2495,
      "ministr": 2496,
      "College": 2497,
      "script": 2498,
      "soldi": 2499,
      "happ": 2500,
      "bi": 2501,
      "frequ": 2502,
      "streng": 2503,
      "ept": 2504,
      "flight": 2505,
      "whose": 2506,
      "sus": 2507,
      "ication": 2508,
      "priv": 2509,
      "igan": 2510,
      "block": 2511,
      "transfer": 2512,
      "Jer": 2513,
      "anal": 2514,
      "ening": 2515,
      "Gold": 2516,
      "Western": 2517,
      "league": 2518,
      "Tri": 2519,
      "Mex": 2520,
      "edy": 2521,
      "cul": 2522,
      "tom": 2523,
      "ases": 2524,
      "prevent": 2525,
      "brother": 2526,
      "changes": 2527,
      "recent": 2528,
      "Sovi": 2529,
      "pil": 2530,
      "gold": 2531,
      "Hill": 2532,
      "conf": 2533,
      "election": 2534,
      "defeated": 2535,
      "Bu": 2536,
      "additional": 2537,
      "ault": 2538,
      "jud": 2539,
      "sch": 2540,
      "Grand": 2541,
      "appl": 2542,
      "future": 2543,
      "berg": 2544,
      "ara": 2545,
      "whom": 2546,
      "poor": 2547,
      "international": 2548,
      "Met": 2549,
      "photo": 2550,
      "Span": 2551,
      "Awards": 2552,
      "native": 2553,
      "exten": 2554,
      "structure": 2555,
      "corpor": 2556,
      "evidence": 2557,
      "changed": 2558,
      "sem": 2559,
      "argu": 2560,
      "33": 2561,
      "quickly": 2562,
      "center": 2563,
      "market": 2564,
      "specific": 2565,
      "Force": 2566,
      "radio": 2567,
      "ben": 2568,
      "already": 2569,
      "umb": 2570,
      "That": 2571,
      "Day": 2572,
      "situ": 2573,
      "atory": 2574,
      "material": 2575,
      "aint": 2576,
      "river": 2577,
      "Most": 2578,
      "coach": 2579,
      "emp": 2580,
      "pet": 2581,
      "dies": 2582,
      "ctive": 2583,
      "agreed": 2584,
      "lies": 2585,
      "itz": 2586,
      "arrived": 2587,
      "civil": 2588,
      "study": 2589,
      "staff": 2590,
      "Britain": 2591,
      "likely": 2592,
      "Mill": 2593,
      "slow": 2594,
      "useum": 2595,
      "decision": 2596,
      "lyr": 2597,
      "Film": 2598,
      "spr": 2599,
      "course": 2600,
      "subject": 2601,
      "hop": 2602,
      "money": 2603,
      "female": 2604,
      "ded": 2605,
      "Chin": 2606,
      "espe": 2607,
      "might": 2608,
      "sometimes": 2609,
      "limited": 2610,
      "surface": 2611,
      "fleet": 2612,
      "pan": 2613,
      "response": 2614,
      "food": 2615,
      "names": 2616,
      "icted": 2617,
      "magazine": 2618,
      "Pac": 2619,
      "actions": 2620,
      "especially": 2621,
      "nation": 2622,
      "flow": 2623,
      "36": 2624,
      "Later": 2625,
      "liament": 2626,
      "Victor": 2627,
      "estimated": 2628,
      "broadcast": 2629,
      "flood": 2630,
      "Championship": 2631,
      "carried": 2632,
      "bell": 2633,
      "Over": 2634,
      "consider": 2635,
      "ples": 2636,
      "worth": 2637,
      "Pat": 2638,
      "ror": 2639,
      "shows": 2640,
      "ena": 2641,
      "paren": 2642,
      "community": 2643,
      "guitar": 2644,
      "bot": 2645,
      "uded": 2646,
      "listed": 2647,
      "rate": 2648,
      "plant": 2649,
      "musical": 2650,
      "prepar": 2651,
      "text": 2652,
      "ises": 2653,
      "size": 2654,
      "scenes": 2655,
      "1999": 2656,
      "isl": 2657,
      "arrison": 2658,
      "related": 2659,
      "remaining": 2660,
      "yl": 2661,
      "37": 2662,
      "eastern": 2663,
      "minor": 2664,
      "Los": 2665,
      "emer": 2666,
      "venue": 2667,
      "personal": 2668,
      "natural": 2669,
      "becoming": 2670,
      "Early": 2671,
      "Virginia": 2672,
      "larger": 2673,
      "division": 2674,
      "media": 2675,
      "latter": 2676,
      "entered": 2677,
      "object": 2678,
      "favor": 2679,
      "yard": 2680,
      "rights": 2681,
      "suit": 2682,
      "doc": 2683,
      "police": 2684,
      "summer": 2685,
      "married": 2686,
      "suggested": 2687,
      "pressure": 2688,
      "approxim": 2689,
      "teams": 2690,
      "brief": 2691,
      "liter": 2692,
      "arrang": 2693,
      "Just": 2694,
      "burg": 2695,
      "adap": 2696,
      "iter": 2697,
      "mor": 2698,
      "Year": 2699,
      "daughter": 2700,
      "tax": 2701,
      "investig": 2702,
      "exper": 2703,
      "establish": 2704,
      "Jackson": 2705,
      "surround": 2706,
      "students": 2707,
      "ari": 2708,
      "kil": 2709,
      "Second": 2710,
      "Ty": 2711,
      "temporary": 2712,
      "effects": 2713,
      "Chic": 2714,
      "Tex": 2715,
      "tons": 2716,
      "woman": 2717,
      "38": 2718,
      "prior": 2719,
      "episodes": 2720,
      "If": 2721,
      "Flor": 2722,
      "Fle": 2723,
      "fit": 2724,
      "Cal": 2725,
      "Tour": 2726,
      "clim": 2727,
      "Oly": 2728,
      "ires": 2729,
      "Louis": 2730,
      "avo": 2731,
      "sett": 2732,
      "irth": 2733,
      "winning": 2734,
      "32": 2735,
      "49": 2736,
      "mode": 2737,
      "Green": 2738,
      "leaving": 2739,
      "Olymp": 2740,
      "destroyed": 2741,
      "viron": 2742,
      "selves": 2743,
      "ny": 2744,
      "tracks": 2745,
      "sons": 2746,
      "Lord": 2747,
      "join": 2748,
      "equip": 2749,
      "fail": 2750,
      "vie": 2751,
      "Club": 2752,
      "Spanish": 2753,
      "Aust": 2754,
      "reli": 2755,
      "Che": 2756,
      "mocr": 2757,
      "provide": 2758,
      "ander": 2759,
      "create": 2760,
      "relative": 2761,
      "igade": 2762,
      "territ": 2763,
      "polic": 2764,
      "aries": 2765,
      "idents": 2766,
      "qual": 2767,
      "spo": 2768,
      "proposed": 2769,
      "big": 2770,
      "intended": 2771,
      "influence": 2772,
      "Party": 2773,
      "Im": 2774,
      "overall": 2775,
      "verse": 2776,
      "captured": 2777,
      "ato": 2778,
      "Soviet": 2779,
      "burn": 2780,
      "moving": 2781,
      "distr": 2782,
      "ili": 2783,
      "occas": 2784,
      "Rob": 2785,
      "fully": 2786,
      "running": 2787,
      "Super": 2788,
      "artment": 2789,
      "supported": 2790,
      "lot": 2791,
      "Association": 2792,
      "thers": 2793,
      "escap": 2794,
      "quarter": 2795,
      "abs": 2796,
      "Del": 2797,
      "purch": 2798,
      "fell": 2799,
      "han": 2800,
      "Chicago": 2801,
      "expected": 2802,
      "mach": 2803,
      "nearly": 2804,
      "Many": 2805,
      "Love": 2806,
      "Lo": 2807,
      "pread": 2808,
      "forward": 2809,
      "ba": 2810,
      "syn": 2811,
      "helped": 2812,
      "movement": 2813,
      "1998": 2814,
      "Chinese": 2815,
      "awarded": 2816,
      "Song": 2817,
      "bring": 2818,
      "mixed": 2819,
      "commercial": 2820,
      "nu": 2821,
      "bey": 2822,
      "secut": 2823,
      "marked": 2824,
      "Council": 2825,
      "dy": 2826,
      "closed": 2827,
      "issued": 2828,
      "Oper": 2829,
      "experience": 2830,
      "consist": 2831,
      "cit": 2832,
      "185": 2833,
      "stars": 2834,
      "stra": 2835,
      "Record": 2836,
      "fish": 2837,
      "Edward": 2838,
      "dark": 2839,
      "Di": 2840,
      "Go": 2841,
      "phen": 2842,
      "Enter": 2843,
      "Ze": 2844,
      "planned": 2845,
      "dead": 2846,
      "breed": 2847,
      "34": 2848,
      "300": 2849,
      "hood": 2850,
      "done": 2851,
      "pow": 2852,
      "bility": 2853,
      "joy": 2854,
      "legal": 2855,
      "wing": 2856,
      "iple": 2857,
      "Hu": 2858,
      "fans": 2859,
      "longer": 2860,
      "operation": 2861,
      "language": 2862,
      "attract": 2863,
      "higher": 2864,
      "bon": 2865,
      "dig": 2866,
      "compared": 2867,
      "increasing": 2868,
      "leader": 2869,
      "bad": 2870,
      "cele": 2871,
      "lor": 2872,
      "deep": 2873,
      "olk": 2874,
      "Johnson": 2875,
      "touch": 2876,
      "living": 2877,
      "approximately": 2878,
      "ience": 2879,
      "Ir": 2880,
      "Bal": 2881,
      "print": 2882,
      "feature": 2883,
      "temper": 2884,
      "fifth": 2885,
      "Back": 2886,
      "themselves": 2887,
      "Kore": 2888,
      "Art": 2889,
      "History": 2890,
      "1st": 2891,
      "producer": 2892,
      "screen": 2893,
      "Mr": 2894,
      "bury": 2895,
      "icles": 2896,
      "mostly": 2897,
      "ams": 2898,
      "48": 2899,
      "Pacific": 2900,
      "intens": 2901,
      "rica": 2902,
      "Billboard": 2903,
      "think": 2904,
      "Cro": 2905,
      "operations": 2906,
      "cu": 2907,
      "remains": 2908,
      "finan": 2909,
      "defeat": 2910,
      "orial": 2911,
      "chall": 2912,
      "appears": 2913,
      "mitted": 2914,
      "weap": 2915,
      "Mur": 2916,
      "buildings": 2917,
      "aught": 2918,
      "whether": 2919,
      "Under": 2920,
      "MS": 2921,
      "ender": 2922,
      "ked": 2923,
      "wa": 2924,
      "plot": 2925,
      "extended": 2926,
      "copies": 2927,
      "probably": 2928,
      "soldiers": 2929,
      "spired": 2930,
      "weight": 2931,
      "Arch": 2932,
      "voice": 2933,
      "Queen": 2934,
      "stream": 2935,
      "pose": 2936,
      "heav": 2937,
      "Squadron": 2938,
      "1997": 2939,
      "Since": 2940,
      "complex": 2941,
      "roll": 2942,
      "portr": 2943,
      "Atlantic": 2944,
      "Tor": 2945,
      "lyrics": 2946,
      "FA": 2947,
      "deb": 2948,
      "affe": 2949,
      "igr": 2950,
      "shoot": 2951,
      "mel": 2952,
      "fill": 2953,
      "jected": 2954,
      "transport": 2955,
      "battles": 2956,
      "really": 2957,
      "ban": 2958,
      "countries": 2959,
      "riage": 2960,
      "Test": 2961,
      "ospital": 2962,
      "boy": 2963,
      "39": 2964,
      "cm": 2965,
      "los": 2966,
      "suffered": 2967,
      "Law": 2968,
      "Lake": 2969,
      "andon": 2970,
      "Rad": 2971,
      "goals": 2972,
      "Sever": 2973,
      "Florida": 2974,
      "demand": 2975,
      "cting": 2976,
      "Big": 2977,
      "includes": 2978,
      "Tur": 2979,
      "cis": 2980,
      "health": 2981,
      "issues": 2982,
      "immediately": 2983,
      "capital": 2984,
      "Both": 2985,
      "47": 2986,
      "Bet": 2987,
      "Mat": 2988,
      "Sea": 2989,
      "mat": 2990,
      "bs": 2991,
      "manager": 2992,
      "rich": 2993,
      "private": 2994,
      "visit": 2995,
      "ert": 2996,
      "request": 2997,
      "Jim": 2998,
      "Leg": 2999,
      "amed": 3000,
      "Jew": 3001,
      "officers": 3002,
      "colon": 3003,
      "Ot": 3004,
      "flag": 3005,
      "Fort": 3006,
      "Mel": 3007,
      "target": 3008,
      "leave": 3009,
      "ultim": 3010,
      "location": 3011,
      "aging": 3012,
      "gas": 3013,
      "Trans": 3014,
      "mic": 3015,
      "Station": 3016,
      "expand": 3017,
      "removed": 3018,
      "ado": 3019,
      "rat": 3020,
      "Texas": 3021,
      "flict": 3022,
      "increase": 3023,
      "yards": 3024,
      "fast": 3025,
      "birth": 3026,
      "portion": 3027,
      "subsequently": 3028,
      "Old": 3029,
      "status": 3030,
      "plans": 3031,
      "Town": 3032,
      "ging": 3033,
      "always": 3034,
      "offered": 3035,
      "confir": 3036,
      "services": 3037,
      "Studi": 3038,
      "upper": 3039,
      "China": 3040,
      "Another": 3041,
      "ously": 3042,
      "Sci": 3043,
      "vey": 3044,
      "evolution": 3045,
      "How": 3046,
      "shire": 3047,
      "aker": 3048,
      "instr": 3049,
      "problems": 3050,
      "attacks": 3051,
      "iser": 3052,
      "mas": 3053,
      "Earth": 3054,
      "demon": 3055,
      "tainment": 3056,
      "twent": 3057,
      "habit": 3058,
      "phy": 3059,
      "reser": 3060,
      "stitut": 3061,
      "forts": 3062,
      "terms": 3063,
      "aily": 3064,
      "something": 3065,
      "professional": 3066,
      "castle": 3067,
      "carry": 3068,
      "Pan": 3069,
      "administr": 3070,
      "village": 3071,
      "Boy": 3072,
      "takes": 3073,
      "contr": 3074,
      "Bra": 3075,
      "Rail": 3076,
      "Wood": 3077,
      "majority": 3078,
      "iles": 3079,
      "orning": 3080,
      "discover": 3081,
      "Emp": 3082,
      "discovered": 3083,
      "neg": 3084,
      "vironment": 3085,
      "Bow": 3086,
      "mouth": 3087,
      "makes": 3088,
      "Canadian": 3089,
      "job": 3090,
      "ranked": 3091,
      "concept": 3092,
      "composed": 3093,
      "beat": 3094,
      "cean": 3095,
      "Center": 3096,
      "assigned": 3097,
      "minute": 3098,
      "Africa": 3099,
      "oph": 3100,
      "elected": 3101,
      "adop": 3102,
      "otion": 3103,
      "uries": 3104,
      "damaged": 3105,
      "initial": 3106,
      "adium": 3107,
      "meeting": 3108,
      "nes": 3109,
      "zz": 3110,
      "chester": 3111,
      "Its": 3112,
      "olic": 3113,
      "RA": 3114,
      "rd": 3115,
      "DV": 3116,
      "onna": 3117,
      "ulated": 3118,
      "Van": 3119,
      "revealed": 3120,
      "individual": 3121,
      "Highway": 3122,
      "Sir": 3123,
      "inspired": 3124,
      "giving": 3125,
      "raised": 3126,
      "atives": 3127,
      "Russian": 3128,
      "46": 3129,
      "itect": 3130,
      "lived": 3131,
      "mist": 3132,
      "yet": 3133,
      "plays": 3134,
      "Carol": 3135,
      "Hal": 3136,
      "Hot": 3137,
      "ails": 3138,
      "necess": 3139,
      "heart": 3140,
      "inent": 3141,
      "Martin": 3142,
      "respectively": 3143,
      "associated": 3144,
      "grand": 3145,
      "Kent": 3146,
      "uter": 3147,
      "attacked": 3148,
      "actor": 3149,
      "Central": 3150,
      "numerous": 3151,
      "1995": 3152,
      "needed": 3153,
      "anch": 3154,
      "cers": 3155,
      "rout": 3156,
      "Angeles": 3157,
      "stitute": 3158,
      "Cle": 3159,
      "cand": 3160,
      "veh": 3161,
      "ulf": 3162,
      "nature": 3163,
      "Francis": 3164,
      "scient": 3165,
      "friends": 3166,
      "Ver": 3167,
      "pool": 3168,
      "distribut": 3169,
      "impact": 3170,
      "launched": 3171,
      "Mont": 3172,
      "stitution": 3173,
      "constructed": 3174,
      "domin": 3175,
      "Cy": 3176,
      "conditions": 3177,
      "books": 3178,
      "occurred": 3179,
      "step": 3180,
      "ider": 3181,
      "information": 3182,
      "contains": 3183,
      "sales": 3184,
      "estival": 3185,
      "shown": 3186,
      "ech": 3187,
      "Congress": 3188,
      "attempted": 3189,
      "uals": 3190,
      "uments": 3191,
      "tur": 3192,
      "2nd": 3193,
      "exam": 3194,
      "Bob": 3195,
      "ications": 3196,
      "piece": 3197,
      "struction": 3198,
      "Ru": 3199,
      "singer": 3200,
      "critical": 3201,
      "Prince": 3202,
      "2016": 3203,
      "secur": 3204,
      "kind": 3205,
      "whole": 3206,
      "Fer": 3207,
      "dev": 3208,
      "Not": 3209,
      "1996": 3210,
      "19th": 3211,
      "cere": 3212,
      "Group": 3213,
      "Out": 3214,
      "mom": 3215,
      "1950": 3216,
      "ioned": 3217,
      "depression": 3218,
      "bio": 3219,
      "letter": 3220,
      "earned": 3221,
      "referred": 3222,
      "produce": 3223,
      "Empire": 3224,
      "vention": 3225,
      "Produ": 3226,
      "Penn": 3227,
      "amount": 3228,
      "ka": 3229,
      "vic": 3230,
      "Camp": 3231,
      "render": 3232,
      "selected": 3233,
      "umed": 3234,
      "Sto": 3235,
      "Jose": 3236,
      "numbers": 3237,
      "houses": 3238,
      "distin": 3239,
      "finally": 3240,
      "inch": 3241,
      "smaller": 3242,
      "chief": 3243,
      "revol": 3244,
      "resulted": 3245,
      "gain": 3246,
      "advan": 3247,
      "fighting": 3248,
      "ett": 3249,
      "bank": 3250,
      "grant": 3251,
      "Rh": 3252,
      "Gar": 3253,
      "captain": 3254,
      "Italian": 3255,
      "ellow": 3256,
      "celebr": 3257,
      "slight": 3258,
      "1994": 3259,
      "industry": 3260,
      "bul": 3261,
      "wound": 3262,
      "largely": 3263,
      "unit": 3264,
      "words": 3265,
      "Sol": 3266,
      "jun": 3267,
      "DVD": 3268,
      "coup": 3269,
      "oil": 3270,
      "dol": 3271,
      "ordin": 3272,
      "commented": 3273,
      "premi": 3274,
      "ify": 3275,
      "ipp": 3276,
      "gent": 3277,
      "Corps": 3278,
      "Crit": 3279,
      "Eli": 3280,
      "55": 3281,
      "sched": 3282,
      "ift": 3283,
      "audience": 3284,
      "izing": 3285,
      "notes": 3286,
      "acting": 3287,
      "education": 3288,
      "unable": 3289,
      "traditional": 3290,
      "spl": 3291,
      "trade": 3292,
      "iff": 3293,
      "imm": 3294,
      "artist": 3295,
      "legisl": 3296,
      "Long": 3297,
      "atest": 3298,
      "directly": 3299,
      "Final": 3300,
      "lif": 3301,
      "improve": 3302,
      "double": 3303,
      "sister": 3304,
      "blood": 3305,
      "attention": 3306,
      "lav": 3307,
      "Viet": 3308,
      "refused": 3309,
      "lock": 3310,
      "ows": 3311,
      "carri": 3312,
      "mos": 3313,
      "positions": 3314,
      "ump": 3315,
      "180": 3316,
      "method": 3317,
      "ski": 3318,
      "newsp": 3319,
      "web": 3320,
      "royal": 3321,
      "primary": 3322,
      "ighter": 3323,
      "Command": 3324,
      "horse": 3325,
      "secret": 3326,
      "dro": 3327,
      "aland": 3328,
      "alle": 3329,
      "Er": 3330,
      "Hel": 3331,
      "Michigan": 3332,
      "achi": 3333,
      "quarters": 3334,
      "spect": 3335,
      "hero": 3336,
      "male": 3337,
      "train": 3338,
      "gradu": 3339,
      "below": 3340,
      "officer": 3341,
      "Mass": 3342,
      "science": 3343,
      "declared": 3344,
      "utch": 3345,
      "install": 3346,
      "enjoy": 3347,
      "Wales": 3348,
      "meant": 3349,
      "Sar": 3350,
      "More": 3351,
      "performances": 3352,
      "religious": 3353,
      "standard": 3354,
      "indic": 3355,
      "44": 3356,
      "Cath": 3357,
      "Republic": 3358,
      "undred": 3359,
      "owned": 3360,
      "ady": 3361,
      "middle": 3362,
      "commander": 3363,
      "ray": 3364,
      "conflict": 3365,
      "pul": 3366,
      "repe": 3367,
      "regard": 3368,
      "Ox": 3369,
      "oo": 3370,
      "matches": 3371,
      "Sup": 3372,
      "orders": 3373,
      "mes": 3374,
      "hi": 3375,
      "Care": 3376,
      "wear": 3377,
      "model": 3378,
      "records": 3379,
      "Democr": 3380,
      "Acad": 3381,
      "rated": 3382,
      "va": 3383,
      "Lin": 3384,
      "ipal": 3385,
      "Gi": 3386,
      "thr": 3387,
      "Team": 3388,
      "progress": 3389,
      "uten": 3390,
      "district": 3391,
      "kes": 3392,
      "antasy": 3393,
      "competition": 3394,
      "serious": 3395,
      "die": 3396,
      "oft": 3397,
      "Lit": 3398,
      "ranch": 3399,
      "session": 3400,
      "Mem": 3401,
      "severe": 3402,
      "vocals": 3403,
      "viewers": 3404,
      "northeast": 3405,
      "Minister": 3406,
      "drum": 3407,
      "Several": 3408,
      "1992": 3409,
      "Major": 3410,
      "Tre": 3411,
      "wick": 3412,
      "atre": 3413,
      "bing": 3414,
      "document": 3415,
      "abandon": 3416,
      "Chris": 3417,
      "energy": 3418,
      "miral": 3419,
      "rapid": 3420,
      "orm": 3421,
      "centre": 3422,
      "cases": 3423,
      "arrow": 3424,
      "ya": 3425,
      "Fore": 3426,
      "forest": 3427,
      "cam": 3428,
      "65": 3429,
      "dut": 3430,
      "continue": 3431,
      "traff": 3432,
      "ti": 3433,
      "atal": 3434,
      "thes": 3435,
      "theme": 3436,
      "iled": 3437,
      "umn": 3438,
      "Time": 3439,
      "Sum": 3440,
      "Four": 3441,
      "ona": 3442,
      "determin": 3443,
      "Fox": 3444,
      "writers": 3445,
      "itation": 3446,
      "Bre": 3447,
      "aware": 3448,
      "favour": 3449,
      "ishop": 3450,
      "kin": 3451,
      "nearby": 3452,
      "highly": 3453,
      "adult": 3454,
      "Zealand": 3455,
      "separate": 3456,
      "Wall": 3457,
      "combat": 3458,
      "arts": 3459,
      "metal": 3460,
      "urt": 3461,
      "culture": 3462,
      "Mexico": 3463,
      "osen": 3464,
      "effort": 3465,
      "incorpor": 3466,
      "presented": 3467,
      "attended": 3468,
      "omen": 3469,
      "African": 3470,
      "reduced": 3471,
      "annual": 3472,
      "edition": 3473,
      "Haw": 3474,
      "20th": 3475,
      "practice": 3476,
      "ogue": 3477,
      "except": 3478,
      "log": 3479,
      "Dar": 3480,
      "rossing": 3481,
      "1930": 3482,
      "Dou": 3483,
      "girl": 3484,
      "means": 3485,
      "neigh": 3486,
      "levels": 3487,
      "rang": 3488,
      "divided": 3489,
      "McC": 3490,
      "cin": 3491,
      "ria": 3492,
      "contact": 3493,
      "tried": 3494,
      "oud": 3495,
      "movie": 3496,
      "ands": 3497,
      "Soci": 3498,
      "thick": 3499,
      "marriage": 3500,
      "twenty": 3501,
      "1993": 3502,
      "architect": 3503,
      "Madonna": 3504,
      "accepted": 3505,
      "ole": 3506,
      "stating": 3507,
      "Stone": 3508,
      "maxim": 3509,
      "1991": 3510,
      "400": 3511,
      "pick": 3512,
      "aired": 3513,
      "serve": 3514,
      "SA": 3515,
      "bled": 3516,
      "fru": 3517,
      "responsible": 3518,
      "Fed": 3519,
      "quality": 3520,
      "iding": 3521,
      "candid": 3522,
      "charge": 3523,
      "direction": 3524,
      "Scotland": 3525,
      "seem": 3526,
      "advance": 3527,
      "rating": 3528,
      "innings": 3529,
      "eve": 3530,
      "Jones": 3531,
      "95": 3532,
      "pret": 3533,
      "hus": 3534,
      "psy": 3535,
      "rein": 3536,
      "Moun": 3537,
      "schools": 3538,
      "pit": 3539,
      "ding": 3540,
      "Their": 3541,
      "ieve": 3542,
      "network": 3543,
      "wealth": 3544,
      "function": 3545,
      "rare": 3546,
      "Simp": 3547,
      "managed": 3548,
      "passing": 3549,
      "rif": 3550,
      "lan": 3551,
      "sides": 3552,
      "Book": 3553,
      "ression": 3554,
      "Tim": 3555,
      "award": 3556,
      "illery": 3557,
      "Greek": 3558,
      "Rol": 3559,
      "Department": 3560,
      "efforts": 3561,
      "Fre": 3562,
      "college": 3563,
      "ites": 3564,
      "economic": 3565,
      "paid": 3566,
      "meaning": 3567,
      "asion": 3568,
      "resulting": 3569,
      "zer": 3570,
      "dropped": 3571,
      "utenant": 3572,
      "iving": 3573,
      "dem": 3574,
      "Kar": 3575,
      "showed": 3576,
      "guest": 3577,
      "lam": 3578,
      "Infantry": 3579,
      "mountain": 3580,
      "Three": 3581,
      "cust": 3582,
      "environment": 3583,
      "hall": 3584,
      "inside": 3585,
      "dan": 3586,
      "murder": 3587,
      "Sur": 3588,
      "bly": 3589,
      "voy": 3590,
      "kept": 3591,
      "oon": 3592,
      "chap": 3593,
      "nest": 3594,
      "Men": 3595,
      "Americ": 3596,
      "allowing": 3597,
      "ram": 3598,
      "Games": 3599,
      "osaur": 3600,
      "ceremon": 3601,
      "Bost": 3602,
      "winter": 3603,
      "cyclone": 3604,
      "waters": 3605,
      "controver": 3606,
      "begins": 3607,
      "Mic": 3608,
      "Commit": 3609,
      "sec": 3610,
      "variety": 3611,
      "morning": 3612,
      "ceeded": 3613,
      "settle": 3614,
      "Hor": 3615,
      "Williams": 3616,
      "arrest": 3617,
      "electric": 3618,
      "Ba": 3619,
      "thur": 3620,
      "schol": 3621,
      "Up": 3622,
      "ores": 3623,
      "Service": 3624,
      "farm": 3625,
      "BA": 3626,
      "pal": 3627,
      "cus": 3628,
      "inches": 3629,
      "peror": 3630,
      "airs": 3631,
      "da": 3632,
      "Creek": 3633,
      "Alli": 3634,
      "titled": 3635,
      "Stan": 3636,
      "path": 3637,
      "Records": 3638,
      "activity": 3639,
      "Post": 3640,
      "Will": 3641,
      "rule": 3642,
      "write": 3643,
      "ami": 3644,
      "continues": 3645,
      "drew": 3646,
      "dance": 3647,
      "symb": 3648,
      "ky": 3649,
      "rot": 3650,
      "isation": 3651,
      "News": 3652,
      "squadron": 3653,
      "SR": 3654,
      "Parliament": 3655,
      "founded": 3656,
      "source": 3657,
      "broke": 3658,
      "aven": 3659,
      "restr": 3660,
      "Foot": 3661,
      "Far": 3662,
      "pitch": 3663,
      "Oh": 3664,
      "phere": 3665,
      "parents": 3666,
      "sole": 3667,
      "hundred": 3668,
      "ott": 3669,
      "starting": 3670,
      "Ire": 3671,
      "conducted": 3672,
      "your": 3673,
      "ounds": 3674,
      "Egy": 3675,
      "vised": 3676,
      "strugg": 3677,
      "excl": 3678,
      "concert": 3679,
      "Society": 3680,
      "78": 3681,
      "ada": 3682,
      "1942": 3683,
      "presence": 3684,
      "spot": 3685,
      "64": 3686,
      "Bridge": 3687,
      "Southern": 3688,
      "metres": 3689,
      "plat": 3690,
      "IS": 3691,
      "iced": 3692,
      "Sil": 3693,
      "crow": 3694,
      "exhib": 3695,
      "Ram": 3696,
      "Sat": 3697,
      "sequence": 3698,
      "selling": 3699,
      "eth": 3700,
      "things": 3701,
      "Ev": 3702,
      "multiple": 3703,
      "contrast": 3704,
      "Arthur": 3705,
      "portun": 3706,
      "transferred": 3707,
      "companies": 3708,
      "deliver": 3709,
      "Committee": 3710,
      "foreign": 3711,
      "Georg": 3712,
      "collection": 3713,
      "enemy": 3714,
      "Latin": 3715,
      "pedo": 3716,
      "Hung": 3717,
      "peaked": 3718,
      "Govern": 3719,
      "Captain": 3720,
      "Cross": 3721,
      "content": 3722,
      "onic": 3723,
      "obtain": 3724,
      "mess": 3725,
      "stories": 3726,
      "recomm": 3727,
      "Like": 3728,
      "Oxford": 3729,
      "traffic": 3730,
      "ita": 3731,
      "ito": 3732,
      "becomes": 3733,
      "account": 3734,
      "Dun": 3735,
      "Admiral": 3736,
      "Joseph": 3737,
      "Chief": 3738,
      "greater": 3739,
      "scoring": 3740,
      "loy": 3741,
      "vocal": 3742,
      "thir": 3743,
      "hu": 3744,
      "Secret": 3745,
      "calling": 3746,
      "concluded": 3747,
      "Den": 3748,
      "PA": 3749,
      "Harrison": 3750,
      "sky": 3751,
      "potential": 3752,
      "41": 3753,
      "birds": 3754,
      "property": 3755,
      "Boston": 3756,
      "attempts": 3757,
      "relatively": 3758,
      "creation": 3759,
      "strength": 3760,
      "extens": 3761,
      "demonstr": 3762,
      "Manchester": 3763,
      "sets": 3764,
      "observed": 3765,
      "primarily": 3766,
      "federal": 3767,
      "bles": 3768,
      "76": 3769,
      "prise": 3770,
      "Class": 3771,
      "actually": 3772,
      "Egypt": 3773,
      "Because": 3774,
      "Before": 3775,
      "financial": 3776,
      "Jeff": 3777,
      "animals": 3778,
      "propos": 3779,
      "journal": 3780,
      "fa": 3781,
      "Swed": 3782,
      "Ken": 3783,
      "Life": 3784,
      "figure": 3785,
      "Hurricane": 3786,
      "anna": 3787,
      "Dire": 3788,
      "opportun": 3789,
      "42": 3790,
      "anger": 3791,
      "tourn": 3792,
      "olf": 3793,
      "identified": 3794,
      "Commission": 3795,
      "featuring": 3796,
      "repair": 3797,
      "ange": 3798,
      "stein": 3799,
      "istics": 3800,
      "1944": 3801,
      "scale": 3802,
      "mechan": 3803,
      "Fred": 3804,
      "Little": 3805,
      "sa": 3806,
      "missed": 3807,
      "share": 3808,
      "85": 3809,
      "withdraw": 3810,
      "situation": 3811,
      "annel": 3812,
      "prov": 3813,
      "Gil": 3814,
      "distance": 3815,
      "Brad": 3816,
      "versions": 3817,
      "Battalion": 3818,
      "independent": 3819,
      "43": 3820,
      "passeng": 3821,
      "extreme": 3822,
      "poet": 3823,
      "Ann": 3824,
      "thous": 3825,
      "resist": 3826,
      "150": 3827,
      "Paris": 3828,
      "lap": 3829,
      "yer": 3830,
      "BBC": 3831,
      "ki": 3832,
      "collabor": 3833,
      "inking": 3834,
      "inte": 3835,
      "here": 3836,
      "faced": 3837,
      "slightly": 3838,
      "image": 3839,
      "Series": 3840,
      "suppl": 3841,
      "replac": 3842,
      "Line": 3843,
      "Max": 3844,
      "Wal": 3845,
      "Ca": 3846,
      "color": 3847,
      "cient": 3848,
      "concent": 3849,
      "mob": 3850,
      "prop": 3851,
      "perial": 3852,
      "colour": 3853,
      "Bat": 3854,
      "torpedo": 3855,
      "seconds": 3856,
      "today": 3857,
      "Pop": 3858,
      "1990": 3859,
      "alleg": 3860,
      "resh": 3861,
      "Vol": 3862,
      "vation": 3863,
      "trial": 3864,
      "completely": 3865,
      "square": 3866,
      "Light": 3867,
      "Croat": 3868,
      "ultimately": 3869,
      "pack": 3870,
      "proved": 3871,
      "behav": 3872,
      "confirmed": 3873,
      "Histor": 3874,
      "maximum": 3875,
      "Gir": 3876,
      "struck": 3877,
      "beth": 3878,
      "blue": 3879,
      "tellig": 3880,
      "cher": 3881,
      "Stephen": 3882,
      "Academy": 3883,
      "master": 3884,
      "sought": 3885,
      "cities": 3886,
      "1920": 3887,
      "1945": 3888,
      "green": 3889,
      "policy": 3890,
      "boat": 3891,
      "dise": 3892,
      "weather": 3893,
      "serving": 3894,
      "society": 3895,
      "HL": 3896,
      "Way": 3897,
      "Museum": 3898,
      "minim": 3899,
      "Saint": 3900,
      "combined": 3901,
      "mainly": 3902,
      "commissioned": 3903,
      "designated": 3904,
      "naval": 3905,
      "1941": 3906,
      "explained": 3907,
      "astic": 3908,
      "ses": 3909,
      "officials": 3910,
      "northwest": 3911,
      "influenced": 3912,
      "ils": 3913,
      "conver": 3914,
      "benef": 3915,
      "border": 3916,
      "ini": 3917,
      "eval": 3918,
      "vessel": 3919,
      "Entertainment": 3920,
      "powerful": 3921,
      "Italy": 3922,
      "illa": 3923,
      "Lee": 3924,
      "batter": 3925,
      "Ob": 3926,
      "Week": 3927,
      "Hy": 3928,
      "alongside": 3929,
      "resol": 3930,
      "visions": 3931,
      "older": 3932,
      "CA": 3933,
      "Brigade": 3934,
      "ulations": 3935,
      "gained": 3936,
      "orses": 3937,
      "Americans": 3938,
      "Spr": 3939,
      "lip": 3940,
      "sources": 3941,
      "systems": 3942,
      "attend": 3943,
      "battleship": 3944,
      "Arab": 3945,
      "din": 3946,
      "says": 3947,
      "princ": 3948,
      "Han": 3949,
      "successfully": 3950,
      "organization": 3951,
      "seek": 3952,
      "background": 3953,
      "industri": 3954,
      "gency": 3955,
      "aga": 3956,
      "feed": 3957,
      "99": 3958,
      "adel": 3959,
      "peace": 3960,
      "goti": 3961,
      "Tod": 3962,
      "theory": 3963,
      "capture": 3964,
      "seg": 3965,
      "ota": 3966,
      "aling": 3967,
      "alone": 3968,
      "nominated": 3969,
      "bud": 3970,
      "ements": 3971,
      "artists": 3972,
      "edge": 3973,
      "reaching": 3974,
      "stay": 3975,
      "news": 3976,
      "dif": 3977,
      "encour": 3978,
      "problem": 3979,
      "Regiment": 3980,
      "elve": 3981,
      "promoted": 3982,
      "widely": 3983,
      "ols": 3984,
      "bass": 3985,
      "sust": 3986,
      "CD": 3987,
      "iano": 3988,
      "mond": 3989,
      "Middle": 3990,
      "SS": 3991,
      "results": 3992,
      "sexual": 3993,
      "husband": 3994,
      "Ireland": 3995,
      "acu": 3996,
      "Live": 3997,
      "Avenue": 3998,
      "travel": 3999,
      "smo": 4000,
      "brary": 4001,
      "Fleet": 4002,
      "vania": 4003,
      "albums": 4004,
      "offer": 4005,
      "Land": 4006,
      "Mu": 4007,
      "subsequent": 4008,
      "greatest": 4009,
      "roads": 4010,
      "IV": 4011,
      "Ray": 4012,
      "invasion": 4013,
      "Bor": 4014,
      "arms": 4015,
      "Os": 4016,
      "Otto": 4017,
      "officially": 4018,
      "1989": 4019,
      "fair": 4020,
      "tun": 4021,
      "Ry": 4022,
      "affected": 4023,
      "sixth": 4024,
      "county": 4025,
      "Wind": 4026,
      "opin": 4027,
      "push": 4028,
      "southeast": 4029,
      "spring": 4030,
      "Lie": 4031,
      "pilot": 4032,
      "1943": 4033,
      "shortly": 4034,
      "theless": 4035,
      "contest": 4036,
      "MD": 4037,
      "true": 4038,
      "expressed": 4039,
      "shell": 4040,
      "Common": 4041,
      "appearances": 4042,
      "armed": 4043,
      "doing": 4044,
      "reception": 4045,
      "causing": 4046,
      "mind": 4047,
      "Mah": 4048,
      "represented": 4049,
      "aded": 4050,
      "arent": 4051,
      "Victoria": 4052,
      "sense": 4053,
      "organized": 4054,
      "physical": 4055,
      "capac": 4056,
      "Catholic": 4057,
      "residents": 4058,
      "defense": 4059,
      "pieces": 4060,
      "core": 4061,
      "teach": 4062,
      "tells": 4063,
      "dog": 4064,
      "Tropical": 4065,
      "arian": 4066,
      "ansion": 4067,
      "syl": 4068,
      "Bus": 4069,
      "seasons": 4070,
      "600": 4071,
      "Valley": 4072,
      "itude": 4073,
      "intend": 4074,
      "laid": 4075,
      "negoti": 4076,
      "ategory": 4077,
      "semb": 4078,
      "hospital": 4079,
      "growth": 4080,
      "Ash": 4081,
      "kg": 4082,
      "ufact": 4083,
      "bodies": 4084,
      "avoid": 4085,
      "icient": 4086,
      "require": 4087,
      "actors": 4088,
      "Dutch": 4089,
      "mn": 4090,
      "pun": 4091,
      "Top": 4092,
      "77": 4093,
      "floor": 4094,
      "Show": 4095,
      "ached": 4096,
      "Though": 4097,
      "iron": 4098,
      "rey": 4099,
      "chair": 4100,
      "focus": 4101,
      "visited": 4102,
      "arg": 4103,
      "3rd": 4104,
      "fired": 4105,
      "Commun": 4106,
      "fellow": 4107,
      "plement": 4108,
      "inson": 4109,
      "atures": 4110,
      "ares": 4111,
      "eas": 4112,
      "advant": 4113,
      "artillery": 4114,
      "ahead": 4115,
      "weapons": 4116,
      "Football": 4117,
      "Good": 4118,
      "dition": 4119,
      "vote": 4120,
      "Rog": 4121,
      "Gal": 4122,
      "oul": 4123,
      "Through": 4124,
      "Kenn": 4125,
      "usual": 4126,
      "Jul": 4127,
      "Hum": 4128,
      "question": 4129,
      "ysis": 4130,
      "eigh": 4131,
      "marine": 4132,
      "Sub": 4133,
      "Tay": 4134,
      "Young": 4135,
      "ote": 4136,
      "leaders": 4137,
      "Well": 4138,
      "heavily": 4139,
      "Upon": 4140,
      "Mountain": 4141,
      "ingu": 4142,
      "phil": 4143,
      "1980s": 4144,
      "pedition": 4145,
      "1940": 4146,
      "anta": 4147,
      "spread": 4148,
      "student": 4149,
      "ronic": 4150,
      "apparent": 4151,
      "sn": 4152,
      "wave": 4153,
      "governor": 4154,
      "studies": 4155,
      "ustr": 4156,
      "Bul": 4157,
      "patter": 4158,
      "amber": 4159,
      "passes": 4160,
      "Def": 4161,
      "Ele": 4162,
      "sions": 4163,
      "executive": 4164,
      "protest": 4165,
      "mile": 4166,
      "Ill": 4167,
      "agreement": 4168,
      "catch": 4169,
      "Bey": 4170,
      "Daniel": 4171,
      "debuted": 4172,
      "cip": 4173,
      "table": 4174,
      "kilomet": 4175,
      "rical": 4176,
      "condition": 4177,
      "prominent": 4178,
      "setting": 4179,
      "instrument": 4180,
      "consisted": 4181,
      "injury": 4182,
      "figures": 4183,
      "begin": 4184,
      "wit": 4185,
      "ights": 4186,
      "Home": 4187,
      "equipment": 4188,
      "earth": 4189,
      "claims": 4190,
      "Of": 4191,
      "matter": 4192,
      "graphic": 4193,
      "negative": 4194,
      "believ": 4195,
      "necessary": 4196,
      "transl": 4197,
      "defend": 4198,
      "66": 4199,
      "otes": 4200,
      "argued": 4201,
      "ici": 4202,
      "preser": 4203,
      "Eliza": 4204,
      "Tele": 4205,
      "arden": 4206,
      "glo": 4207,
      "urban": 4208,
      "omy": 4209,
      "dated": 4210,
      "rick": 4211,
      "normal": 4212,
      "opposed": 4213,
      "Homer": 4214,
      "Civil": 4215,
      "returning": 4216,
      "Jon": 4217,
      "istrict": 4218,
      "contemporary": 4219,
      "lic": 4220,
      "1970s": 4221,
      "pict": 4222,
      "ani": 4223,
      "Ly": 4224,
      "ube": 4225,
      "Main": 4226,
      "mut": 4227,
      "Northern": 4228,
      "famous": 4229,
      "rig": 4230,
      "ker": 4231,
      "maintained": 4232,
      "kick": 4233,
      "deg": 4234,
      "frequently": 4235,
      "aces": 4236,
      "1960s": 4237,
      "couple": 4238,
      "Pen": 4239,
      "types": 4240,
      "paper": 4241,
      "acher": 4242,
      "Kr": 4243,
      "von": 4244,
      "stations": 4245,
      "Dev": 4246,
      "ockey": 4247,
      "vor": 4248,
      "god": 4249,
      "deck": 4250,
      "finish": 4251,
      "speech": 4252,
      "District": 4253,
      "Tem": 4254,
      "rect": 4255,
      "zy": 4256,
      "TC": 4257,
      "criticized": 4258,
      "mann": 4259,
      "activities": 4260,
      "Marsh": 4261,
      "heard": 4262,
      "machine": 4263,
      "Carolina": 4264,
      "folk": 4265,
      "Bond": 4266,
      "Ocean": 4267,
      "drug": 4268,
      "ij": 4269,
      "toward": 4270,
      "Ha": 4271,
      "acts": 4272,
      "citiz": 4273,
      "occasion": 4274,
      "discuss": 4275,
      "tournament": 4276,
      "planet": 4277,
      "gam": 4278,
      "reference": 4279,
      "reign": 4280,
      "trees": 4281,
      "singles": 4282,
      "ano": 4283,
      "coal": 4284,
      "else": 4285,
      "ledge": 4286,
      "operated": 4287,
      "lers": 4288,
      "1987": 4289,
      "senior": 4290,
      "Scottish": 4291,
      "eway": 4292,
      "System": 4293,
      "medical": 4294,
      "AC": 4295,
      "aspect": 4296,
      "worldwide": 4297,
      "achieve": 4298,
      "territory": 4299,
      "trying": 4300,
      "Writ": 4301,
      "value": 4302,
      "eye": 4303,
      "Government": 4304,
      "imen": 4305,
      "1988": 4306,
      "stre": 4307,
      "awa": 4308,
      "Holly": 4309,
      "Fantasy": 4310,
      "Governor": 4311,
      "modif": 4312,
      "narr": 4313,
      "Colon": 4314,
      "holds": 4315,
      "Castle": 4316,
      "ette": 4317,
      "horses": 4318,
      "Jud": 4319,
      "Field": 4320,
      "gate": 4321,
      "Operation": 4322,
      "hands": 4323,
      "Background": 4324,
      "treatment": 4325,
      "zed": 4326,
      "historian": 4327,
      "sembly": 4328,
      "views": 4329,
      "rainfall": 4330,
      "accident": 4331,
      "96": 4332,
      "shap": 4333,
      "looking": 4334,
      "university": 4335,
      "split": 4336,
      "crash": 4337,
      "therefore": 4338,
      "honor": 4339,
      "supply": 4340,
      "leaves": 4341,
      "grew": 4342,
      "challeng": 4343,
      "Duke": 4344,
      "Hard": 4345,
      "gian": 4346,
      "chosen": 4347,
      "championship": 4348,
      "assault": 4349,
      "Short": 4350,
      "ressed": 4351,
      "shore": 4352,
      "rum": 4353,
      "incident": 4354,
      "Studios": 4355,
      "twice": 4356,
      "rael": 4357,
      "Dam": 4358,
      "cance": 4359,
      "Polish": 4360,
      "walls": 4361,
      "Lew": 4362,
      "Rod": 4363,
      "reports": 4364,
      "Bell": 4365,
      "stood": 4366,
      "heads": 4367,
      "esc": 4368,
      "asket": 4369,
      "Mul": 4370,
      "consecut": 4371,
      "Senate": 4372,
      "escape": 4373,
      "rane": 4374,
      "offensive": 4375,
      "cou": 4376,
      "velopment": 4377,
      "oe": 4378,
      "teenth": 4379,
      "acted": 4380,
      "Eastern": 4381,
      "billion": 4382,
      "follows": 4383,
      "soundtrack": 4384,
      "Andrew": 4385,
      "stock": 4386,
      "pton": 4387,
      "manufact": 4388,
      "prompt": 4389,
      "launch": 4390,
      "editor": 4391,
      "street": 4392,
      "oting": 4393,
      "workers": 4394,
      "pursu": 4395,
      "schedul": 4396,
      "wounded": 4397,
      "edom": 4398,
      "surrounding": 4399,
      "steam": 4400,
      "gal": 4401,
      "contained": 4402,
      "ucky": 4403,
      "decre": 4404,
      "degree": 4405,
      "bat": 4406,
      "fuel": 4407,
      "wart": 4408,
      "herself": 4409,
      "Christmas": 4410,
      "typically": 4411,
      "Beat": 4412,
      "Pennsyl": 4413,
      "WW": 4414,
      "servation": 4415,
      "uth": 4416,
      "tail": 4417,
      "Wel": 4418,
      "symp": 4419,
      "Allied": 4420,
      "Columb": 4421,
      "Mean": 4422,
      "fiction": 4423,
      "lives": 4424,
      "Corn": 4425,
      "cies": 4426,
      "simply": 4427,
      "Wilson": 4428,
      "unknown": 4429,
      "rival": 4430,
      "ager": 4431,
      "ifying": 4432,
      "Tech": 4433,
      "element": 4434,
      "railway": 4435,
      "emphas": 4436,
      "dete": 4437,
      "regarded": 4438,
      "oration": 4439,
      "Taylor": 4440,
      "Joe": 4441,
      "56": 4442,
      "chance": 4443,
      "1986": 4444,
      "drive": 4445,
      "aud": 4446,
      "chose": 4447,
      "Down": 4448,
      "consecutive": 4449,
      "nothing": 4450,
      "Alexander": 4451,
      "authority": 4452,
      "currently": 4453,
      "Each": 4454,
      "cannot": 4455,
      "adapt": 4456,
      "Fam": 4457,
      "growing": 4458,
      "yle": 4459,
      "Blue": 4460,
      "brown": 4461,
      "newly": 4462,
      "cited": 4463,
      "tree": 4464,
      "spirit": 4465,
      "throw": 4466,
      "participated": 4467,
      "isters": 4468,
      "website": 4469,
      "Bon": 4470,
      "mentioned": 4471,
      "casual": 4472,
      "creating": 4473,
      "grade": 4474,
      "broken": 4475,
      "producers": 4476,
      "newspaper": 4477,
      "roof": 4478,
      "Ret": 4479,
      "risk": 4480,
      "experiment": 4481,
      "compar": 4482,
      "boats": 4483,
      "capacity": 4484,
      "extra": 4485,
      "losing": 4486,
      "firm": 4487,
      "advert": 4488,
      "Festival": 4489,
      "disp": 4490,
      "adopted": 4491,
      "filming": 4492,
      "advanced": 4493,
      "Sound": 4494,
      "ilies": 4495,
      "What": 4496,
      "clo": 4497,
      "Storm": 4498,
      "moment": 4499,
      "strike": 4500,
      "oppon": 4501,
      "Pennsylvania": 4502,
      "err": 4503,
      "door": 4504,
      "Night": 4505,
      "opposition": 4506,
      "initi": 4507,
      "azz": 4508,
      "Ros": 4509,
      "imag": 4510,
      "ables": 4511,
      "Head": 4512,
      "basis": 4513,
      "Bol": 4514,
      "Chart": 4515,
      "oppos": 4516,
      "council": 4517,
      "Islands": 4518,
      "wel": 4519,
      "uce": 4520,
      "plants": 4521,
      "Liber": 4522,
      "sites": 4523,
      "aved": 4524,
      "58": 4525,
      "calls": 4526,
      "chor": 4527,
      "budget": 4528,
      "illy": 4529,
      "Mike": 4530,
      "fare": 4531,
      "Reception": 4532,
      "abandoned": 4533,
      "committee": 4534,
      "Irish": 4535,
      "Further": 4536,
      "tery": 4537,
      "phas": 4538,
      "silver": 4539,
      "inth": 4540,
      "franch": 4541,
      "98": 4542,
      "flying": 4543,
      "fly": 4544,
      "tower": 4545,
      "bute": 4546,
      "accompan": 4547,
      "umber": 4548,
      "Albert": 4549,
      "otional": 4550,
      "filmed": 4551,
      "sections": 4552,
      "purpose": 4553,
      "Harry": 4554,
      "ola": 4555,
      "ners": 4556,
      "homes": 4557,
      "wild": 4558,
      "Coast": 4559,
      "rush": 4560,
      "Person": 4561,
      "Spain": 4562,
      "igg": 4563,
      "sail": 4564,
      "expansion": 4565,
      "Jersey": 4566,
      "ounger": 4567,
      "sche": 4568,
      "Ron": 4569,
      "encounter": 4570,
      "landing": 4571,
      "possibly": 4572,
      "auto": 4573,
      "individuals": 4574,
      "eration": 4575,
      "apers": 4576,
      "Pu": 4577,
      "1990s": 4578,
      "beyond": 4579,
      "walk": 4580,
      "measure": 4581,
      "Square": 4582,
      "failure": 4583,
      "multi": 4584,
      "Kel": 4585,
      "lane": 4586,
      "deploy": 4587,
      "historical": 4588,
      "Ven": 4589,
      "agg": 4590,
      "nick": 4591,
      "places": 4592,
      "draft": 4593,
      "killing": 4594,
      "Sand": 4595,
      "Origin": 4596,
      "ctic": 4597,
      "1939": 4598,
      "ques": 4599,
      "ero": 4600,
      "brid": 4601,
      "genus": 4602,
      "ont": 4603,
      "paralle": 4604,
      "achieved": 4605,
      "sports": 4606,
      "occupied": 4607,
      "believe": 4608,
      "intellig": 4609,
      "eds": 4610,
      "management": 4611,
      "Elizabeth": 4612,
      "integr": 4613,
      "roles": 4614,
      "rooms": 4615,
      "Broad": 4616,
      "Public": 4617,
      "Production": 4618,
      "Sel": 4619,
      "narrow": 4620,
      "Republ": 4621,
      "wid": 4622,
      "retired": 4623,
      "ideas": 4624,
      "gi": 4625,
      "Institute": 4626,
      "Israel": 4627,
      "improved": 4628,
      "hair": 4629,
      "ancy": 4630,
      "disease": 4631,
      "Mir": 4632,
      "perman": 4633,
      "Bart": 4634,
      "seat": 4635,
      "bom": 4636,
      "Due": 4637,
      "briefly": 4638,
      "Revolution": 4639,
      "1985": 4640,
      "amin": 4641,
      "Liver": 4642,
      "1968": 4643,
      "porters": 4644,
      "effective": 4645,
      "administration": 4646,
      "granted": 4647,
      "perfect": 4648,
      "mounted": 4649,
      "repeated": 4650,
      "receive": 4651,
      "uff": 4652,
      "personnel": 4653,
      "advantage": 4654,
      "Are": 4655,
      "Greg": 4656,
      "inf": 4657,
      "custom": 4658,
      "Meanwhile": 4659,
      "DS": 4660,
      "rejected": 4661,
      "Republican": 4662,
      "Ul": 4663,
      "unique": 4664,
      "twelve": 4665,
      "Clark": 4666,
      "hill": 4667,
      "gives": 4668,
      "iana": 4669,
      "kilometres": 4670,
      "rise": 4671,
      "Doctor": 4672,
      "iring": 4673,
      "extensive": 4674,
      "turns": 4675,
      "Album": 4676,
      "leadership": 4677,
      "52": 4678,
      "Bud": 4679,
      "interchange": 4680,
      "avalry": 4681,
      "Ohio": 4682,
      "Cub": 4683,
      "1970": 4684,
      "data": 4685,
      "crossing": 4686,
      "experienced": 4687,
      "ko": 4688,
      "zil": 4689,
      "Ten": 4690,
      "tend": 4691,
      "abin": 4692,
      "infantry": 4693,
      "evacu": 4694,
      "Ve": 4695,
      "straight": 4696,
      "controlled": 4697,
      "Board": 4698,
      "expanded": 4699,
      "Hon": 4700,
      "yellow": 4701,
      "forming": 4702,
      "describes": 4703,
      "solo": 4704,
      "afety": 4705,
      "NC": 4706,
      "champion": 4707,
      "Secretary": 4708,
      "alty": 4709,
      "choice": 4710,
      "adelph": 4711,
      "attribut": 4712,
      "iation": 4713,
      "note": 4714,
      "Rel": 4715,
      "oma": 4716,
      "lyn": 4717,
      "iments": 4718,
      "1984": 4719,
      "psych": 4720,
      "allows": 4721,
      "ike": 4722,
      "acquired": 4723,
      "ardi": 4724,
      "entr": 4725,
      "sort": 4726,
      "didn": 4727,
      "credited": 4728,
      "animal": 4729,
      "kins": 4730,
      "Jes": 4731,
      "fought": 4732,
      "surrender": 4733,
      "Philadelph": 4734,
      "ivity": 4735,
      "explos": 4736,
      "security": 4737,
      "determined": 4738,
      "Jr": 4739,
      "Sher": 4740,
      "caught": 4741,
      "iday": 4742,
      "sac": 4743,
      "venture": 4744,
      "families": 4745,
      "vehicles": 4746,
      "Even": 4747,
      "sand": 4748,
      "suggests": 4749,
      "sle": 4750,
      "titles": 4751,
      "800": 4752,
      "oll": 4753,
      "burgh": 4754,
      "Never": 4755,
      "shark": 4756,
      "drama": 4757,
      "Cambridge": 4758,
      "Georgia": 4759,
      "article": 4760,
      "haps": 4761,
      "mod": 4762,
      "Gall": 4763,
      "88": 4764,
      "commonly": 4765,
      "nuclear": 4766,
      "ancient": 4767,
      "Es": 4768,
      "eyes": 4769,
      "comedy": 4770,
      "guard": 4771,
      "Philadelphia": 4772,
      "seventh": 4773,
      "prefer": 4774,
      "acad": 4775,
      "iful": 4776,
      "powers": 4777,
      "anning": 4778,
      "ii": 4779,
      "agan": 4780,
      "yst": 4781,
      "holding": 4782,
      "labor": 4783,
      "Hit": 4784,
      "Tro": 4785,
      "authorities": 4786,
      "wise": 4787,
      "contain": 4788,
      "connected": 4789,
      "Chap": 4790,
      "headquarters": 4791,
      "store": 4792,
      "attle": 4793,
      "Also": 4794,
      "1967": 4795,
      "centuries": 4796,
      "islands": 4797,
      "ux": 4798,
      "Addition": 4799,
      "cultural": 4800,
      "Ep": 4801,
      "aka": 4802,
      "Point": 4803,
      "Russia": 4804,
      "recently": 4805,
      "beaut": 4806,
      "97": 4807,
      "iny": 4808,
      "protected": 4809,
      "fields": 4810,
      "120": 4811,
      "umes": 4812,
      "Kir": 4813,
      "Arm": 4814,
      "FL": 4815,
      "estic": 4816,
      "restling": 4817,
      "simple": 4818,
      "1980": 4819,
      "ries": 4820,
      "Bas": 4821,
      "Hay": 4822,
      "Mos": 4823,
      "Rose": 4824,
      "phone": 4825,
      "Ottoman": 4826,
      "depict": 4827,
      "Among": 4828,
      "Pers": 4829,
      "wal": 4830,
      "Liverpool": 4831,
      "Si": 4832,
      "finds": 4833,
      "Nintend": 4834,
      "reput": 4835,
      "Rus": 4836,
      "extr": 4837,
      "Jun": 4838,
      "erc": 4839,
      "isa": 4840,
      "singing": 4841,
      "ule": 4842,
      "shop": 4843,
      "ounder": 4844,
      "Nintendo": 4845,
      "speak": 4846,
      "Lar": 4847,
      "hang": 4848,
      "Asia": 4849,
      "turret": 4850,
      "battalion": 4851,
      "Run": 4852,
      "cat": 4853,
      "aste": 4854,
      "approved": 4855,
      "bands": 4856,
      "orche": 4857,
      "Columbia": 4858,
      "dollar": 4859,
      "51": 4860,
      "Ind": 4861,
      "existing": 4862,
      "accompanied": 4863,
      "defence": 4864,
      "PC": 4865,
      "goes": 4866,
      "Miss": 4867,
      "height": 4868,
      "containing": 4869,
      "Jenn": 4870,
      "entirely": 4871,
      "iance": 4872,
      "Jean": 4873,
      "arc": 4874,
      "Prime": 4875,
      "protect": 4876,
      "Burn": 4877,
      "analysis": 4878,
      "scheduled": 4879,
      "sun": 4880,
      "Lincol": 4881,
      "Champion": 4882,
      "touchdown": 4883,
      "computer": 4884,
      "Singap": 4885,
      "contributed": 4886,
      "isers": 4887,
      "themes": 4888,
      "Sa": 4889,
      "flooding": 4890,
      "Korean": 4891,
      "Development": 4892,
      "younger": 4893,
      "provides": 4894,
      "purchased": 4895,
      "57": 4896,
      "prising": 4897,
      "Brazil": 4898,
      "Mis": 4899,
      "1983": 4900,
      "performing": 4901,
      "Lieutenant": 4902,
      "quite": 4903,
      "awards": 4904,
      "Gulf": 4905,
      "locations": 4906,
      "conve": 4907,
      "mate": 4908,
      "anda": 4909,
      "sport": 4910,
      "myth": 4911,
      "Radio": 4912,
      "Jewish": 4913,
      "headed": 4914,
      "Anderson": 4915,
      "task": 4916,
      "Die": 4917,
      "defensive": 4918,
      "arrival": 4919,
      "End": 4920,
      "Francisco": 4921,
      "gather": 4922,
      "viewed": 4923,
      "motion": 4924,
      "resem": 4925,
      "engaged": 4926,
      "filled": 4927,
      "Singapore": 4928,
      "Order": 4929,
      "Ka": 4930,
      "ceremony": 4931,
      "Lincoln": 4932,
      "1964": 4933,
      "expedition": 4934,
      "illustr": 4935,
      "formula": 4936,
      "People": 4937,
      "victim": 4938,
      "1969": 4939,
      "outs": 4940,
      "Office": 4941,
      "philos": 4942,
      "Dark": 4943,
      "ees": 4944,
      "Carey": 4945,
      "MA": 4946,
      "fresh": 4947,
      "cles": 4948,
      "employed": 4949,
      "asketball": 4950,
      "54": 4951,
      "dedicated": 4952,
      "etic": 4953,
      "dry": 4954,
      "joint": 4955,
      "Metro": 4956,
      "cock": 4957,
      "repl": 4958,
      "Disney": 4959,
      "ura": 4960,
      "ju": 4961,
      "why": 4962,
      "intensity": 4963,
      "sens": 4964,
      "Oli": 4965,
      "1914": 4966,
      "Bank": 4967,
      "prepared": 4968,
      "1918": 4969,
      "Pit": 4970,
      "structures": 4971,
      "HMS": 4972,
      "PlayStation": 4973,
      "motor": 4974,
      "industrial": 4975,
      "Pet": 4976,
      "Turn": 4977,
      "agement": 4978,
      "Gro": 4979,
      "hydro": 4980,
      "ec": 4981,
      "enge": 4982,
      "1982": 4983,
      "charged": 4984,
      "Brook": 4985,
      "defined": 4986,
      "Walter": 4987,
      "Ri": 4988,
      "Six": 4989,
      "1971": 4990,
      "Brian": 4991,
      "recru": 4992,
      "escort": 4993,
      "Steve": 4994,
      "closely": 4995,
      "Miller": 4996,
      "Lewis": 4997,
      "egg": 4998,
      "comic": 4999,
      "consists": 5000,
      "1966": 5001,
      "drawn": 5002,
      "technology": 5003,
      "product": 5004,
      "Byz": 5005,
      "emb": 5006,
      "1972": 5007,
      "Mod": 5008,
      "Conference": 5009,
      "Blo": 5010,
      "piano": 5011,
      "1979": 5012,
      "Sus": 5013,
      "focused": 5014,
      "Ko": 5015,
      "elimin": 5016,
      "protection": 5017,
      "aly": 5018,
      "18th": 5019,
      "izes": 5020,
      "recover": 5021,
      "Once": 5022,
      "facilities": 5023,
      "supporting": 5024,
      "criticism": 5025,
      "cars": 5026,
      "preced": 5027,
      "iet": 5028,
      "Olympic": 5029,
      "68": 5030,
      "tact": 5031,
      "kee": 5032,
      "rence": 5033,
      "ilton": 5034,
      "belong": 5035,
      "selection": 5036,
      "susp": 5037,
      "strip": 5038,
      "discus": 5039,
      "Byzant": 5040,
      "Grant": 5041,
      "visual": 5042,
      "uct": 5043,
      "branch": 5044,
      "Child": 5045,
      "shooting": 5046,
      "regions": 5047,
      "trail": 5048,
      "asc": 5049,
      "earch": 5050,
      "1965": 5051,
      "atom": 5052,
      "Railway": 5053,
      "Op": 5054,
      "NHL": 5055,
      "bac": 5056,
      "Emperor": 5057,
      "belief": 5058,
      "rupt": 5059,
      "satis": 5060,
      "advis": 5061,
      "hired": 5062,
      "substant": 5063,
      "rear": 5064,
      "Water": 5065,
      "inger": 5066,
      "1975": 5067,
      "94": 5068,
      "opportunity": 5069,
      "ours": 5070,
      "recognized": 5071,
      "lb": 5072,
      "receiving": 5073,
      "correspond": 5074,
      "display": 5075,
      "knot": 5076,
      "conference": 5077,
      "strengthen": 5078,
      "notable": 5079,
      "possess": 5080,
      "trains": 5081,
      "Tam": 5082,
      "Summer": 5083,
      "liber": 5084,
      "Loc": 5085,
      "Bad": 5086,
      "Germans": 5087,
      "composition": 5088,
      "Hollywood": 5089,
      "providing": 5090,
      "alternative": 5091,
      "Les": 5092,
      "tank": 5093,
      "UN": 5094,
      "ads": 5095,
      "resident": 5096,
      "onc": 5097,
      "ween": 5098,
      "Davis": 5099,
      "card": 5100,
      "zen": 5101,
      "merch": 5102,
      "1974": 5103,
      "Only": 5104,
      "Cur": 5105,
      "charts": 5106,
      "agent": 5107,
      "Lan": 5108,
      "achu": 5109,
      "exter": 5110,
      "uan": 5111,
      "Indu": 5112,
      "Fall": 5113,
      "Serb": 5114,
      "rapidly": 5115,
      "volume": 5116,
      "southwest": 5117,
      "1973": 5118,
      "resc": 5119,
      "desc": 5120,
      "digital": 5121,
      "hed": 5122,
      "publication": 5123,
      "Democratic": 5124,
      "ogy": 5125,
      "ES": 5126,
      "abo": 5127,
      "lake": 5128,
      "Lind": 5129,
      "Dor": 5130,
      "shared": 5131,
      "anth": 5132,
      "Daily": 5133,
      "unting": 5134,
      "67": 5135,
      "casualties": 5136,
      "acks": 5137,
      "Lady": 5138,
      "constant": 5139,
      "highlight": 5140,
      "glass": 5141,
      "Between": 5142,
      "reaction": 5143,
      "label": 5144,
      "hot": 5145,
      "1976": 5146,
      "temperature": 5147,
      "53": 5148,
      "adding": 5149,
      "missing": 5150,
      "economy": 5151,
      "Jour": 5152,
      "IG": 5153,
      "Rome": 5154,
      "steel": 5155,
      "icial": 5156,
      "Knight": 5157,
      "crimin": 5158,
      "involve": 5159,
      "inal": 5160,
      "developing": 5161,
      "brand": 5162,
      "tos": 5163,
      "rie": 5164,
      "reflect": 5165,
      "letters": 5166,
      "IA": 5167,
      "Mun": 5168,
      "250": 5169,
      "inspir": 5170,
      "symbol": 5171,
      "intersection": 5172,
      "formal": 5173,
      "heim": 5174,
      "secondary": 5175,
      "Mount": 5176,
      "popularity": 5177,
      "raid": 5178,
      "eleven": 5179,
      "getting": 5180,
      "mast": 5181,
      "isol": 5182,
      "Special": 5183,
      "trip": 5184,
      "emic": 5185,
      "Nap": 5186,
      "nic": 5187,
      "ceived": 5188,
      "injured": 5189,
      "losses": 5190,
      "gro": 5191,
      "itled": 5192,
      "semi": 5193,
      "painting": 5194,
      "poll": 5195,
      "87": 5196,
      "franchise": 5197,
      "save": 5198,
      "witness": 5199,
      "Women": 5200,
      "portray": 5201,
      "significantly": 5202,
      "ati": 5203,
      "dram": 5204,
      "Naz": 5205,
      "exc": 5206,
      "Muslim": 5207,
      "ulate": 5208,
      "Arts": 5209,
      "knew": 5210,
      "math": 5211,
      "Bern": 5212,
      "abour": 5213,
      "Syd": 5214,
      "remo": 5215,
      "unte": 5216,
      "grapher": 5217,
      "decor": 5218,
      "literature": 5219,
      "Beyonc": 5220,
      "actress": 5221,
      "cricket": 5222,
      "shape": 5223,
      "fash": 5224,
      "evin": 5225,
      "iers": 5226,
      "ully": 5227,
      "avig": 5228,
      "roughly": 5229,
      "distinct": 5230,
      "BS": 5231,
      "160": 5232,
      "regarding": 5233,
      "brothers": 5234,
      "scientific": 5235,
      "anything": 5236,
      "Nick": 5237,
      "ias": 5238,
      "aug": 5239,
      "projects": 5240,
      "neighbor": 5241,
      "Colonel": 5242,
      "arranged": 5243,
      "bishop": 5244,
      "introduction": 5245,
      "resistance": 5246,
      "aer": 5247,
      "Prin": 5248,
      "mad": 5249,
      "udes": 5250,
      "cool": 5251,
      "gameplay": 5252,
      "Ell": 5253,
      "Pass": 5254,
      "annon": 5255,
      "Fair": 5256,
      "Press": 5257,
      "rog": 5258,
      "Supreme": 5259,
      "4th": 5260,
      "storyline": 5261,
      "Prote": 5262,
      "museum": 5263,
      "cells": 5264,
      "rules": 5265,
      "reasons": 5266,
      "AD": 5267,
      "apt": 5268,
      "distingu": 5269,
      "rhy": 5270,
      "plane": 5271,
      "awn": 5272,
      "Der": 5273,
      "bid": 5274,
      "daily": 5275,
      "Kentucky": 5276,
      "1946": 5277,
      "watched": 5278,
      "itors": 5279,
      "missions": 5280,
      "59": 5281,
      "shaped": 5282,
      "1981": 5283,
      "cruiser": 5284,
      "BN": 5285,
      "Mit": 5286,
      "accur": 5287,
      "trou": 5288,
      "stages": 5289,
      "istry": 5290,
      "Nel": 5291,
      "turning": 5292,
      "Det": 5293,
      "perhaps": 5294,
      "laws": 5295,
      "enjoyed": 5296,
      "acres": 5297,
      "recon": 5298,
      "asty": 5299,
      "renamed": 5300,
      "capable": 5301,
      "opinion": 5302,
      "1950s": 5303,
      "ultural": 5304,
      "appre": 5305,
      "setts": 5306,
      "declined": 5307,
      "estate": 5308,
      "Norway": 5309,
      "abilities": 5310,
      "converted": 5311,
      "Dream": 5312,
      "Gord": 5313,
      "reputation": 5314,
      "marks": 5315,
      "Whit": 5316,
      "stable": 5317,
      "1917": 5318,
      "publish": 5319,
      "Base": 5320,
      "Massachu": 5321,
      "dates": 5322,
      "ride": 5323,
      "Olympics": 5324,
      "ading": 5325,
      "agric": 5326,
      "poem": 5327,
      "retire": 5328,
      "CE": 5329,
      "ulpt": 5330,
      "genre": 5331,
      "Cir": 5332,
      "Elect": 5333,
      "ridge": 5334,
      "statement": 5335,
      "existence": 5336,
      "replace": 5337,
      "operating": 5338,
      "Philip": 5339,
      "Vide": 5340,
      "zone": 5341,
      "zo": 5342,
      "Massachusetts": 5343,
      "rol": 5344,
      "producing": 5345,
      "buried": 5346,
      "sie": 5347,
      "exact": 5348,
      "agu": 5349,
      "collected": 5350,
      "flat": 5351,
      "FC": 5352,
      "combination": 5353,
      "Ball": 5354,
      "depth": 5355,
      "knowledge": 5356,
      "limit": 5357,
      "Pict": 5358,
      "scholar": 5359,
      "bling": 5360,
      "increasingly": 5361,
      "graded": 5362,
      "asser": 5363,
      "amond": 5364,
      "approached": 5365,
      "lease": 5366,
      "Gree": 5367,
      "stadium": 5368,
      "iger": 5369,
      "Airport": 5370,
      "hr": 5371,
      "swe": 5372,
      "planning": 5373,
      "Independ": 5374,
      "Golden": 5375,
      "responded": 5376,
      "easily": 5377,
      "rob": 5378,
      "1948": 5379,
      "Rac": 5380,
      "expect": 5381,
      "equal": 5382,
      "1960": 5383,
      "settlement": 5384,
      "icks": 5385,
      "sects": 5386,
      "exerc": 5387,
      "About": 5388,
      "photograph": 5389,
      "ctors": 5390,
      "succeeded": 5391,
      "Ice": 5392,
      "models": 5393,
      "safety": 5394,
      "athan": 5395,
      "aust": 5396,
      "Earl": 5397,
      "humans": 5398,
      "learned": 5399,
      "borough": 5400,
      "Simpsons": 5401,
      "py": 5402,
      "platform": 5403,
      "Net": 5404,
      "sustained": 5405,
      "Init": 5406,
      "illi": 5407,
      "owner": 5408,
      "promotion": 5409,
      "Stand": 5410,
      "secure": 5411,
      "1978": 5412,
      "breeding": 5413,
      "AR": 5414,
      "baseball": 5415,
      "carrying": 5416,
      "indicated": 5417,
      "Songs": 5418,
      "700": 5419,
      "Kh": 5420,
      "exchange": 5421,
      "uration": 5422,
      "showing": 5423,
      "youth": 5424,
      "crowd": 5425,
      "Hart": 5426,
      "Vietnam": 5427,
      "MTV": 5428,
      "osis": 5429,
      "Hugh": 5430,
      "ira": 5431,
      "ignment": 5432,
      "89": 5433,
      "lasted": 5434,
      "Hun": 5435,
      "79": 5436,
      "paint": 5437,
      "violence": 5438,
      "Imperial": 5439,
      "Band": 5440,
      "Jay": 5441,
      "univers": 5442,
      "icate": 5443,
      "Cape": 5444,
      "86": 5445,
      "entry": 5446,
      "seems": 5447,
      "trust": 5448,
      "athlet": 5449,
      "cold": 5450,
      "wr": 5451,
      "weakened": 5452,
      "Form": 5453,
      "cruisers": 5454,
      "1915": 5455,
      "tall": 5456,
      "designs": 5457,
      "Shortly": 5458,
      "ients": 5459,
      "safe": 5460,
      "inton": 5461,
      "proceed": 5462,
      "Poland": 5463,
      "Moore": 5464,
      "ador": 5465,
      "1977": 5466,
      "ruled": 5467,
      "ji": 5468,
      "freeway": 5469,
      "Sydney": 5470,
      "earliest": 5471,
      "Maryland": 5472,
      "aki": 5473,
      "Who": 5474,
      "landfall": 5475,
      "istan": 5476,
      "description": 5477,
      "retained": 5478,
      "wich": 5479,
      "dial": 5480,
      "applied": 5481,
      "none": 5482,
      "ental": 5483,
      "grounds": 5484,
      "Ari": 5485,
      "union": 5486,
      "programs": 5487,
      "Naval": 5488,
      "assistant": 5489,
      "fix": 5490,
      "page": 5491,
      "borne": 5492,
      "Bir": 5493,
      "reck": 5494,
      "ampions": 5495,
      "ining": 5496,
      "reserve": 5497,
      "resour": 5498,
      "ophy": 5499,
      "playoff": 5500,
      "serves": 5501,
      "seas": 5502,
      "Spring": 5503,
      "issance": 5504,
      "coastal": 5505,
      "lee": 5506,
      "writes": 5507,
      "hits": 5508,
      "virt": 5509,
      "insula": 5510,
      "neut": 5511,
      "1963": 5512,
      "Fire": 5513,
      "Kn": 5514,
      "domestic": 5515,
      "onym": 5516,
      "entrance": 5517,
      "sculpt": 5518,
      "Tun": 5519,
      "iverse": 5520,
      "stret": 5521,
      "battery": 5522,
      "gall": 5523,
      "strate": 5524,
      "exclus": 5525,
      "eff": 5526,
      "towns": 5527,
      "yo": 5528,
      "candidate": 5529,
      "items": 5530,
      "heat": 5531,
      "Matt": 5532,
      "aret": 5533,
      "1916": 5534,
      "breaking": 5535,
      "delivered": 5536,
      "elled": 5537,
      "camera": 5538,
      "Edu": 5539,
      "gradually": 5540,
      "eman": 5541,
      "solid": 5542,
      "politics": 5543,
      "stopped": 5544,
      "lets": 5545,
      "warm": 5546,
      "isms": 5547,
      "settled": 5548,
      "distribution": 5549,
      "aine": 5550,
      "interested": 5551,
      "independence": 5552,
      "apped": 5553,
      "ifications": 5554,
      "details": 5555,
      "wan": 5556,
      "cinem": 5557,
      "cler": 5558,
      "Confed": 5559,
      "minister": 5560,
      "Mulder": 5561,
      "Cont": 5562,
      "Kim": 5563,
      "affect": 5564,
      "fine": 5565,
      "pel": 5566,
      "equival": 5567,
      "supplies": 5568,
      "Ra": 5569,
      "copy": 5570,
      "foss": 5571,
      "61": 5572,
      "Carl": 5573,
      "Vo": 5574,
      "parties": 5575,
      "finding": 5576,
      "Gordon": 5577,
      "Sul": 5578,
      "72": 5579,
      "1919": 5580,
      "engines": 5581,
      "mical": 5582,
      "appeal": 5583,
      "decis": 5584,
      "refle": 5585,
      "rose": 5586,
      "prisoners": 5587,
      "Stadium": 5588,
      "Pur": 5589,
      "Here": 5590,
      "Kat": 5591,
      "Found": 5592,
      "Rhodes": 5593,
      "online": 5594,
      "campus": 5595,
      "Sav": 5596,
      "1962": 5597,
      "Ur": 5598,
      "Adams": 5599,
      "winner": 5600,
      "stic": 5601,
      "extremely": 5602,
      "entitled": 5603,
      "correct": 5604,
      "69": 5605,
      "hear": 5606,
      "Space": 5607,
      "Sl": 5608,
      "agen": 5609,
      "izations": 5610,
      "convin": 5611,
      "decade": 5612,
      "Prof": 5613,
      "acid": 5614,
      "Moon": 5615,
      "ima": 5616,
      "Premi": 5617,
      "agn": 5618,
      "62": 5619,
      "inary": 5620,
      "Theatre": 5621,
      "inois": 5622,
      "fal": 5623,
      "consum": 5624,
      "mine": 5625,
      "regiment": 5626,
      "studied": 5627,
      "bourne": 5628,
      "imet": 5629,
      "offers": 5630,
      "iversary": 5631,
      "1938": 5632,
      "evening": 5633,
      "investigation": 5634,
      "Bowl": 5635,
      "threatened": 5636,
      "iro": 5637,
      "bought": 5638,
      "adapted": 5639,
      "cation": 5640,
      "message": 5641,
      "religion": 5642,
      "survived": 5643,
      "sor": 5644,
      "voted": 5645,
      "knots": 5646,
      "aked": 5647,
      "proposal": 5648,
      "hun": 5649,
      "uzz": 5650,
      "relations": 5651,
      "Constant": 5652,
      "Justice": 5653,
      "Age": 5654,
      "revolution": 5655,
      "bottom": 5656,
      "classified": 5657,
      "deaths": 5658,
      "Research": 5659,
      "routes": 5660,
      "Nat": 5661,
      "crown": 5662,
      "download": 5663,
      "USA": 5664,
      "Instead": 5665,
      "Let": 5666,
      "Anth": 5667,
      "kingdom": 5668,
      "relief": 5669,
      "phase": 5670,
      "males": 5671,
      "classic": 5672,
      "installed": 5673,
      "reduce": 5674,
      "Ant": 5675,
      "specifically": 5676,
      "una": 5677,
      "Bos": 5678,
      "ighters": 5679,
      "ora": 5680,
      "fict": 5681,
      "orter": 5682,
      "130": 5683,
      "ishes": 5684,
      "implement": 5685,
      "happy": 5686,
      "duty": 5687,
      "phoon": 5688,
      "ansas": 5689,
      "fil": 5690,
      "recalled": 5691,
      "servative": 5692,
      "portrayed": 5693,
      "compon": 5694,
      "Beach": 5695,
      "overs": 5696,
      "send": 5697,
      "corner": 5698,
      "meters": 5699,
      "controversy": 5700,
      "Power": 5701,
      "shel": 5702,
      "Tony": 5703,
      "lad": 5704,
      "causes": 5705,
      "appropri": 5706,
      "products": 5707,
      "everything": 5708,
      "references": 5709,
      "typical": 5710,
      "faith": 5711,
      "advoc": 5712,
      "1956": 5713,
      "Alan": 5714,
      "importance": 5715,
      "Sky": 5716,
      "ester": 5717,
      "wides": 5718,
      "express": 5719,
      "arrested": 5720,
      "onia": 5721,
      "diss": 5722,
      "crossed": 5723,
      "fi": 5724,
      "sufficient": 5725,
      "Video": 5726,
      "bringing": 5727,
      "angle": 5728,
      "NBA": 5729,
      "eu": 5730,
      "Singles": 5731,
      "visible": 5732,
      "entially": 5733,
      "Kong": 5734,
      "invited": 5735,
      "tanks": 5736,
      "reading": 5737,
      "crop": 5738,
      "1930s": 5739,
      "Director": 5740,
      "aints": 5741,
      "opera": 5742,
      "Rem": 5743,
      "ala": 5744,
      "presents": 5745,
      "internal": 5746,
      "Ow": 5747,
      "istered": 5748,
      "Simon": 5749,
      "otic": 5750,
      "93": 5751,
      "admitted": 5752,
      "prot": 5753,
      "DE": 5754,
      "opher": 5755,
      "Iron": 5756,
      "volcan": 5757,
      "nomination": 5758,
      "Adam": 5759,
      "IGN": 5760,
      "1936": 5761,
      "Philipp": 5762,
      "starts": 5763,
      "sequences": 5764,
      "Wild": 5765,
      "bra": 5766,
      "Critical": 5767,
      "equipped": 5768,
      "amoun": 5769,
      "Engine": 5770,
      "vard": 5771,
      "cript": 5772,
      "concerns": 5773,
      "emies": 5774,
      "actual": 5775,
      "Maria": 5776,
      "Hamilton": 5777,
      "incorporated": 5778,
      "Your": 5779,
      "principal": 5780,
      "dream": 5781,
      "convoy": 5782,
      "crime": 5783,
      "Ku": 5784,
      "Plan": 5785,
      "recommended": 5786,
      "medal": 5787,
      "ranean": 5788,
      "remainder": 5789,
      "images": 5790,
      "Jane": 5791,
      "Plot": 5792,
      "UTC": 5793,
      "shots": 5794,
      "Gun": 5795,
      "snow": 5796,
      "rett": 5797,
      "Pa": 5798,
      "cycle": 5799,
      "journey": 5800,
      "leton": 5801,
      "san": 5802,
      "assess": 5803,
      "Rand": 5804,
      "price": 5805,
      "17th": 5806,
      "ader": 5807,
      "ibility": 5808,
      "Tit": 5809,
      "composer": 5810,
      "funds": 5811,
      "objects": 5812,
      "1961": 5813,
      "Gram": 5814,
      "appointment": 5815,
      "ilation": 5816,
      "wed": 5817,
      "females": 5818,
      "thew": 5819,
      "consisting": 5820,
      "Pear": 5821,
      "ingly": 5822,
      "frag": 5823,
      "promote": 5824,
      "mort": 5825,
      "Death": 5826,
      "storms": 5827,
      "considerable": 5828,
      "milit": 5829,
      "Cre": 5830,
      "Vill": 5831,
      "Walk": 5832,
      "Indones": 5833,
      "oured": 5834,
      "spons": 5835,
      "looked": 5836,
      "charges": 5837,
      "extension": 5838,
      "mere": 5839,
      "posted": 5840,
      "ipated": 5841,
      "clean": 5842,
      "Today": 5843,
      "casting": 5844,
      "1953": 5845,
      "Nether": 5846,
      "Donald": 5847,
      "claiming": 5848,
      "til": 5849,
      "110": 5850,
      "Cas": 5851,
      "Kennedy": 5852,
      "Memorial": 5853,
      "generation": 5854,
      "ige": 5855,
      "63": 5856,
      "Cleve": 5857,
      "beach": 5858,
      "81": 5859,
      "duties": 5860,
      "hope": 5861,
      "Norman": 5862,
      "acre": 5863,
      "5th": 5864,
      "atus": 5865,
      "someone": 5866,
      "Harr": 5867,
      "Bry": 5868,
      "esh": 5869,
      "rural": 5870,
      "gone": 5871,
      "Military": 5872,
      "Sunday": 5873,
      "Transport": 5874,
      "eighth": 5875,
      "Indiana": 5876,
      "outer": 5877,
      "Howard": 5878,
      "canal": 5879,
      "decades": 5880,
      "driving": 5881,
      "Norwe": 5882,
      "afford": 5883,
      "ulture": 5884,
      "connection": 5885,
      "Pot": 5886,
      "Arsen": 5887,
      "identity": 5888,
      "apping": 5889,
      "Leon": 5890,
      "Scully": 5891,
      "ordan": 5892,
      "challenge": 5893,
      "sam": 5894,
      "occurs": 5895,
      "scar": 5896,
      "AAF": 5897,
      "inher": 5898,
      "sters": 5899,
      "answ": 5900,
      "manner": 5901,
      "iques": 5902,
      "mole": 5903,
      "antly": 5904,
      "Jac": 5905,
      "perior": 5906,
      "Hitler": 5907,
      "permanent": 5908,
      "glas": 5909,
      "cens": 5910,
      "mud": 5911,
      "ician": 5912,
      "brigade": 5913,
      "Ross": 5914,
      "aspects": 5915,
      "freedom": 5916,
      "thesis": 5917,
      "fashion": 5918,
      "7th": 5919,
      "1947": 5920,
      "entering": 5921,
      "Five": 5922,
      "lling": 5923,
      "prin": 5924,
      "dub": 5925,
      "1937": 5926,
      "1958": 5927,
      "74": 5928,
      "liked": 5929,
      "classes": 5930,
      "concerned": 5931,
      "Brist": 5932,
      "noting": 5933,
      "attached": 5934,
      "poly": 5935,
      "valu": 5936,
      "divisions": 5937,
      "restaur": 5938,
      "hotel": 5939,
      "prey": 5940,
      "Ryan": 5941,
      "Wars": 5942,
      "Hou": 5943,
      "icit": 5944,
      "supporters": 5945,
      "WWE": 5946,
      "slowly": 5947,
      "92": 5948,
      "prised": 5949,
      "Science": 5950,
      "itage": 5951,
      "owners": 5952,
      "91": 5953,
      "1910": 5954,
      "1957": 5955,
      "iven": 5956,
      "resent": 5957,
      "describing": 5958,
      "seeing": 5959,
      "enemies": 5960,
      "involving": 5961,
      "grave": 5962,
      "Ak": 5963,
      "Pier": 5964,
      "brain": 5965,
      "Project": 5966,
      "Turk": 5967,
      "vessels": 5968,
      "ione": 5969,
      "uni": 5970,
      "iley": 5971,
      "department": 5972,
      "oldest": 5973,
      "check": 5974,
      "intention": 5975,
      "Assembly": 5976,
      "purchase": 5977,
      "akers": 5978,
      "junction": 5979,
      "equivalent": 5980,
      "parliament": 5981,
      "ears": 5982,
      "aran": 5983,
      "debate": 5984,
      "Gra": 5985,
      "nie": 5986,
      "pup": 5987,
      "agonist": 5988,
      "Magazine": 5989,
      "obtained": 5990,
      "theatre": 5991,
      "possibility": 5992,
      "regularly": 5993,
      "convent": 5994,
      "Rolling": 5995,
      "basic": 5996,
      "ration": 5997,
      "agues": 5998,
      "Media": 5999,
      "sessions": 6000,
      "Lau": 6001,
      "Card": 6002,
      "Cleveland": 6003,
      "scious": 6004,
      "prede": 6005,
      "certified": 6006,
      "Jordan": 6007,
      "Master": 6008,
      "Corpor": 6009,
      "populations": 6010,
      "constitut": 6011,
      "uge": 6012,
      "departure": 6013,
      "deleg": 6014,
      "widespread": 6015,
      "Isa": 6016,
      "decline": 6017,
      "Illinois": 6018,
      "income": 6019,
      "intr": 6020,
      "acknow": 6021,
      "committed": 6022,
      "recognition": 6023,
      "ento": 6024,
      "armor": 6025,
      "EC": 6026,
      "Key": 6027,
      "regon": 6028,
      "Douglas": 6029,
      "ja": 6030,
      "accused": 6031,
      "Throughout": 6032,
      "ynasty": 6033,
      "sequel": 6034,
      "Weekly": 6035,
      "shock": 6036,
      "frame": 6037,
      "derived": 6038,
      "icide": 6039,
      "circum": 6040,
      "proto": 6041,
      "assumed": 6042,
      "Andy": 6043,
      "wearing": 6044,
      "fur": 6045,
      "torn": 6046,
      "ML": 6047,
      "ologist": 6048,
      "skin": 6049,
      "Bi": 6050,
      "survey": 6051,
      "1959": 6052,
      "citizens": 6053,
      "Oregon": 6054,
      "segment": 6055,
      "Stanley": 6056,
      "stands": 6057,
      "Freder": 6058,
      "plate": 6059,
      "Arsenal": 6060,
      "Alf": 6061,
      "link": 6062,
      "lose": 6063,
      "6th": 6064,
      "historic": 6065,
      "hosted": 6066,
      "clip": 6067,
      "valley": 6068,
      "Third": 6069,
      "intelligence": 6070,
      "pled": 6071,
      "gers": 6072,
      "returns": 6073,
      "Roger": 6074,
      "Ali": 6075,
      "Mas": 6076,
      "Ut": 6077,
      "regional": 6078,
      "Bruce": 6079,
      "animated": 6080,
      "guil": 6081,
      "denied": 6082,
      "Family": 6083,
      "temple": 6084,
      "Mediter": 6085,
      "parallel": 6086,
      "inity": 6087,
      "Recording": 6088,
      "Mexican": 6089,
      "Rain": 6090,
      "1954": 6091,
      "altern": 6092,
      "Beatles": 6093,
      "literary": 6094,
      "flank": 6095,
      "terminus": 6096,
      "Kevin": 6097,
      "Ok": 6098,
      "thousands": 6099,
      "Norwegian": 6100,
      "interpret": 6101,
      "transition": 6102,
      "1955": 6103,
      "neck": 6104,
      "fruit": 6105,
      "Mediterranean": 6106,
      "Glo": 6107,
      "thetic": 6108,
      "supposed": 6109,
      "graphics": 6110,
      "mosphere": 6111,
      "aced": 6112,
      "tex": 6113,
      "wickets": 6114,
      "Bristol": 6115,
      "Now": 6116,
      "Treat": 6117,
      "Allen": 6118,
      "erald": 6119,
      "mates": 6120,
      "thedr": 6121,
      "noon": 6122,
      "Girl": 6123,
      "Dig": 6124,
      "Ira": 6125,
      "raise": 6126,
      "ISBN": 6127,
      "circulation": 6128,
      "behavior": 6129,
      "aboard": 6130,
      "strongly": 6131,
      "PS": 6132,
      "count": 6133,
      "Bush": 6134,
      "Morgan": 6135,
      "16th": 6136,
      "impl": 6137,
      "grass": 6138,
      "sailed": 6139,
      "magn": 6140,
      "MI": 6141,
      "uous": 6142,
      "fictional": 6143,
      "convict": 6144,
      "passengers": 6145,
      "trait": 6146,
      "clubs": 6147,
      "races": 6148,
      "Channel": 6149,
      "thirty": 6150,
      "conscious": 6151,
      "Federal": 6152,
      "emerged": 6153,
      "orb": 6154,
      "abol": 6155,
      "kid": 6156,
      "tied": 6157,
      "orient": 6158,
      "knock": 6159,
      "82": 6160,
      "migr": 6161,
      "cow": 6162,
      "commanded": 6163,
      "establishment": 6164,
      "vary": 6165,
      "norm": 6166,
      "Tenn": 6167,
      "apart": 6168,
      "emed": 6169,
      "dict": 6170,
      "address": 6171,
      "Az": 6172,
      "assistance": 6173,
      "begun": 6174,
      "exception": 6175,
      "costs": 6176,
      "replacement": 6177,
      "instru": 6178,
      "downtown": 6179,
      "operate": 6180,
      "conduct": 6181,
      "destruction": 6182,
      "moves": 6183,
      "atinum": 6184,
      "Row": 6185,
      "generated": 6186,
      "feeling": 6187,
      "telling": 6188,
      "cos": 6189,
      "speaking": 6190,
      "rus": 6191,
      "Forest": 6192,
      "attributed": 6193,
      "FI": 6194,
      "13th": 6195,
      "dipl": 6196,
      "Low": 6197,
      "ni": 6198,
      "iller": 6199,
      "sight": 6200,
      "anned": 6201,
      "Korea": 6202,
      "demol": 6203,
      "Within": 6204,
      "rip": 6205,
      "opposite": 6206,
      "stayed": 6207,
      "finishing": 6208,
      "appearing": 6209,
      "willing": 6210,
      "Lyn": 6211,
      "driven": 6212,
      "Lisa": 6213,
      "unusual": 6214,
      "Additionally": 6215,
      "Fame": 6216,
      "rub": 6217,
      "astron": 6218,
      "alleged": 6219,
      "Argent": 6220,
      "Ever": 6221,
      "properties": 6222,
      "recovered": 6223,
      "joining": 6224,
      "Color": 6225,
      "Nich": 6226,
      "institut": 6227,
      "1952": 6228,
      "volunte": 6229,
      "shif": 6230,
      "atmosphere": 6231,
      "strateg": 6232,
      "CR": 6233,
      "inde": 6234,
      "Bou": 6235,
      "CO": 6236,
      "fighter": 6237,
      "alco": 6238,
      "Jam": 6239,
      "ipe": 6240,
      "Anne": 6241,
      "Profess": 6242,
      "micro": 6243,
      "chorus": 6244,
      "Confeder": 6245,
      "fled": 6246,
      "nut": 6247,
      "occasionally": 6248,
      "sid": 6249,
      "cel": 6250,
      "Anton": 6251,
      "uit": 6252,
      "Robinson": 6253,
      "Murray": 6254,
      "Lenn": 6255,
      "garrison": 6256,
      "71": 6257,
      "opt": 6258,
      "abled": 6259,
      "dang": 6260,
      "Anim": 6261,
      "Prior": 6262,
      "aza": 6263,
      "effectively": 6264,
      "responsibility": 6265,
      "Morris": 6266,
      "84": 6267,
      "cavalry": 6268,
      "completion": 6269,
      "sounds": 6270,
      "Winter": 6271,
      "demo": 6272,
      "swim": 6273,
      "73": 6274,
      "tie": 6275,
      "methods": 6276,
      "1933": 6277,
      "Fish": 6278,
      "Somer": 6279,
      "Hawai": 6280,
      "Television": 6281,
      "scrap": 6282,
      "Similar": 6283,
      "classical": 6284,
      "Around": 6285,
      "girls": 6286,
      "erup": 6287,
      "Av": 6288,
      "quant": 6289,
      "Unlike": 6290,
      "accom": 6291,
      "warning": 6292,
      "materials": 6293,
      "Finn": 6294,
      "enses": 6295,
      "persu": 6296,
      "fitted": 6297,
      "boys": 6298,
      "Construction": 6299,
      "pure": 6300,
      "technical": 6301,
      "province": 6302,
      "alph": 6303,
      "ront": 6304,
      "global": 6305,
      "column": 6306,
      "fear": 6307,
      "surviving": 6308,
      "attracted": 6309,
      "Tal": 6310,
      "climate": 6311,
      "Nelson": 6312,
      "Web": 6313,
      "reform": 6314,
      "mobile": 6315,
      "classification": 6316,
      "keeping": 6317,
      "shar": 6318,
      "select": 6319,
      "differences": 6320,
      "pir": 6321,
      "Sweden": 6322,
      "ava": 6323,
      "1935": 6324,
      "bels": 6325,
      "code": 6326,
      "association": 6327,
      "Patrick": 6328,
      "passage": 6329,
      "Gill": 6330,
      "Premier": 6331,
      "sequently": 6332,
      "reality": 6333,
      "Temple": 6334,
      "oslav": 6335,
      "poses": 6336,
      "gets": 6337,
      "ensure": 6338,
      "credit": 6339,
      "concer": 6340,
      "ratings": 6341,
      "neither": 6342,
      "tip": 6343,
      "1949": 6344,
      "Toronto": 6345,
      "Journal": 6346,
      "1951": 6347,
      "painted": 6348,
      "massive": 6349,
      "Welsh": 6350,
      "TA": 6351,
      "infe": 6352,
      "reinforce": 6353,
      "agle": 6354,
      "separated": 6355,
      "desire": 6356,
      "map": 6357,
      "ye": 6358,
      "weigh": 6359,
      "controversi": 6360,
      "MP": 6361,
      "carbon": 6362,
      "outbreak": 6363,
      "Dog": 6364,
      "Nations": 6365,
      "vehicle": 6366,
      "scape": 6367,
      "thors": 6368,
      "votes": 6369,
      "praise": 6370,
      "Byzantine": 6371,
      "seemed": 6372,
      "predecess": 6373,
      "revi": 6374,
      "uty": 6375,
      "Chron": 6376,
      "picture": 6377,
      "ua": 6378,
      "fee": 6379,
      "soul": 6380,
      "battleships": 6381,
      "memory": 6382,
      "MC": 6383,
      "ios": 6384,
      "movements": 6385,
      "hoped": 6386,
      "requested": 6387,
      "restored": 6388,
      "historians": 6389,
      "cha": 6390,
      "Every": 6391,
      "Sports": 6392,
      "Netherlands": 6393,
      "Matthew": 6394,
      "basketball": 6395,
      "umin": 6396,
      "funding": 6397,
      "difficulty": 6398,
      "doub": 6399,
      "bear": 6400,
      "ucks": 6401,
      "convinced": 6402,
      "remember": 6403,
      "anny": 6404
    },
    "merges": [
      "t h",
      "i n",
      "e r",
      "a n",
      "th e",
      "o n",
      "e d",
      "r e",
      "a t",
      "e n",
      "o r",
      "a l",
      "s t",
      "a r",
      "an d",
      "a s",
      "o f",
      "in g",
      "e s",
      "t o",
      "i s",
      "i t",
      "o u",
      "i c",
      "i on",
      "l e",
      "h e",
      "r o",
      "i l",
      "a c",
      "en t",
      "a d",
      "s e",
      "a m",
      "o m",
      "b e",
      "l y",
      "w as",
      "f or",
      "c h",
      "v e",
      "d e",
      "u r",
      "o l",
      "i r",
      "T he",
      "i m",
      "- @",
      "@ -@",
      "i g",
      "v er",
      "t er",
      "w h",
      "o w",
      "u n",
      "i th",
      "c e",
      "a y",
      "i d",
      "c on",
      "at ion",
      "c t",
      "w ith",
      "a g",
      "th at",
      "t e",
      "b y",
      "u s",
      "o t",
      "e l",
      "er e",
      "r i",
      "u l",
      "a p",
      "e t",
      "u t",
      "1 9",
      "re s",
      "a in",
      "er s",
      "o p",
      "p l",
      "c om",
      "h is",
      "ro m",
      "u m",
      "al l",
      "0 0",
      "a b",
      "ou n",
      "i st",
      "m o",
      "s u",
      "n e",
      "s h",
      "p ro",
      "p e",
      "f rom",
      "I n",
      "c l",
      "at e",
      "a re",
      "l i",
      "t r",
      "ar t",
      "th er",
      "o s",
      "ig h",
      "e m",
      "d i",
      "e x",
      "b er",
      "e st",
      "ic h",
      "a k",
      "l d",
      "w ere",
      "o c",
      "il l",
      "ar d",
      "a st",
      "i es",
      "an t",
      "p er",
      "on g",
      "q u",
      "g h",
      "m ent",
      "at ed",
      "m an",
      "i ve",
      "ou t",
      "am e",
      "it y",
      "es s",
      "f e",
      "o d",
      "ou r",
      "h ad",
      "en d",
      "is h",
      "ac k",
      "or t",
      "on e",
      "al s",
      "a v",
      "g e",
      "o ver",
      "e ar",
      "t w",
      "a f",
      "i p",
      "wh ich",
      "ou gh",
      "d er",
      "b ut",
      "g r",
      "n ot",
      "v i",
      "as s",
      "ac t",
      "al ly",
      "oun d",
      "a ve",
      "st r",
      "in e",
      "igh t",
      "h er",
      "ar y",
      "r it",
      "u d",
      "it s",
      "i v",
      "d u",
      "p r",
      "i an",
      "e p",
      "i f",
      "S t",
      "C h",
      "o re",
      "2 0",
      "w or",
      "f ir",
      "u p",
      "2 00",
      "e w",
      "i a",
      "ou ld",
      "c or",
      "a u",
      "ou s",
      "ow n",
      "b o",
      "b l",
      "a w",
      "ac h",
      "ct ion",
      "e v",
      "com p",
      "ag e",
      "k e",
      "at t",
      "l and",
      "fir st",
      "p ort",
      "ig n",
      "it ion",
      "for m",
      "s i",
      "the ir",
      "ic al",
      "l o",
      "l ow",
      "i al",
      "s er",
      "t im",
      "l l",
      "p o",
      "at er",
      "als o",
      "H e",
      "wh o",
      "b r",
      "in t",
      "p art",
      "u re",
      "1 8",
      "c re",
      "h as",
      "o ther",
      "an s",
      "h ave",
      "om e",
      "pl ay",
      "p t",
      "o k",
      "u st",
      "of f",
      "con t",
      ". @",
      "@ .@",
      "tw o",
      "i le",
      "re e",
      "en ce",
      "c o",
      "p res",
      "ur ing",
      "m e",
      "be en",
      "p re",
      "ic e",
      "w e",
      "an ce",
      "m er",
      "d is",
      ", @",
      "@ ,@",
      "20 1",
      "T h",
      "p os",
      "I t",
      "p h",
      "th is",
      "or y",
      "y ear",
      "af ter",
      "ul t",
      "el l",
      "re n",
      "d es",
      "ac e",
      "s c",
      "v ed",
      "f in",
      "ar k",
      "A n",
      "c ent",
      "ab le",
      "ad e",
      "m on",
      "the y",
      "in cl",
      "u e",
      "it e",
      "an g",
      "a il",
      "U n",
      "wor k",
      "e ver",
      "c ed",
      "f f",
      "a ir",
      "c r",
      "s ion",
      "cor d",
      "tim e",
      "s p",
      "in ter",
      "ur n",
      "ation s",
      "w ould",
      "sh ip",
      "i z",
      "in to",
      "h im",
      "ic k",
      "ve l",
      "s pe",
      "s he",
      "n o",
      "m ber",
      "i e",
      "at es",
      "ic t",
      "as ed",
      "mo re",
      "i re",
      "il m",
      "it ed",
      "m in",
      "ol d",
      "t y",
      "w ay",
      "A r",
      "s on",
      "am p",
      "c es",
      "mo st",
      "o g",
      "ne w",
      "f ore",
      "m ain",
      "A l",
      "be c",
      "r y",
      "an y",
      "t en",
      "re t",
      "as e",
      "us ed",
      "an n",
      "as on",
      "f l",
      "o od",
      "incl ud",
      "con d",
      "c ess",
      "ct ed",
      "ing s",
      "r an",
      "in d",
      "a th",
      "v is",
      "l es",
      "or s",
      "r ed",
      "d ay",
      "f ilm",
      "wh en",
      "t ed",
      "t on",
      "c ol",
      "il d",
      "r ough",
      "com m",
      "ak e",
      "w ard",
      "M ar",
      "o b",
      "c k",
      "ic an",
      "en s",
      "A u",
      "t s",
      "b u",
      "g an",
      "r a",
      "th ough",
      "s y",
      "re g",
      "ion s",
      "R e",
      "e en",
      "W h",
      "D e",
      "d uring",
      "th an",
      "O n",
      "o se",
      "ag ain",
      "s o",
      "g ame",
      "g en",
      "un der",
      "b le",
      "u bl",
      "ch ar",
      "n or",
      "pro du",
      "19 9",
      "on ly",
      "ol low",
      "the m",
      "ab out",
      "i de",
      "ro w",
      "c an",
      "ent s",
      "wh ile",
      "N ew",
      "E n",
      "ation al",
      "o y",
      "s ome",
      "s ong",
      "re le",
      "l ater",
      "l ed",
      "er ed",
      "ou th",
      "e le",
      "tw een",
      "be tween",
      "1 0",
      "s ing",
      "r on",
      "at ing",
      "c oun",
      "th ree",
      "A f",
      "k n",
      "wh ere",
      "th rough",
      "n um",
      "a id",
      "A s",
      "se ason",
      "ic s",
      "f ul",
      "vi ew",
      "m y",
      "l ar",
      "con s",
      "A mer",
      "er n",
      "t ain",
      "w rit",
      "su b",
      "str u",
      "i ed",
      "d r",
      "L e",
      "the n",
      "re l",
      "ul ar",
      "i ver",
      "00 0",
      "ter s",
      "se l",
      "J o",
      "h igh",
      "se cond",
      "m ed",
      "se t",
      "m ade",
      "C om",
      "e f",
      "c ur",
      "am es",
      "b um",
      "re cord",
      "f our",
      "d o",
      "g o",
      "c ap",
      "f ollow",
      "u b",
      "oc k",
      "1 7",
      "spe c",
      "c all",
      "su ch",
      "c ar",
      "s ur",
      "en g",
      "ish ed",
      "at ch",
      "N o",
      "b ack",
      "be fore",
      "th ere",
      "te am",
      "w ell",
      "1 5",
      "m a",
      "i el",
      "m us",
      "in n",
      "v en",
      "ch o",
      "year s",
      "S h",
      "ap pe",
      "C on",
      "ad d",
      "p ol",
      "T his",
      "ro s",
      "N or",
      "id ent",
      "su p",
      "if ic",
      "al bum",
      "p ubl",
      "re at",
      "il y",
      "ow ever",
      "j e",
      "f er",
      "g u",
      ". .",
      "te m",
      "al e",
      "u al",
      "at ive",
      "un t",
      "man y",
      "po int",
      "be ing",
      "ep is",
      "u ary",
      "on d",
      "ou p",
      "o de",
      "e k",
      "in ce",
      "w ar",
      "vel op",
      "in s",
      "A t",
      "ur y",
      "again st",
      "u se",
      "num ber",
      "p ed",
      "B e",
      "si de",
      "le ad",
      "sh ow",
      "f t",
      "char ac",
      "Af ter",
      "p ar",
      "1 6",
      "se ver",
      "l oc",
      "1 2",
      "m em",
      "as h",
      "l ong",
      "au se",
      "appe ar",
      "i ous",
      "i o",
      "re ce",
      "bec ame",
      "B rit",
      "includ ing",
      "h n",
      "li ke",
      "c y",
      "Un ited",
      "ser v",
      "es e",
      "S e",
      "bo th",
      "c ri",
      "is e",
      "ser ies",
      "o st",
      "19 8",
      "f ound",
      "fe at",
      "kn own",
      "m i",
      "l ine",
      "ig in",
      "c over",
      "d id",
      "19 4",
      "S he",
      "ro p",
      "end ed",
      "er al",
      "a z",
      "de velop",
      "t ri",
      "le y",
      "m ill",
      "c er",
      "W ar",
      "cont in",
      "ment s",
      "it ies",
      "di re",
      "u res",
      "3 0",
      "d own",
      "En g",
      "r un",
      "su c",
      "p op",
      "he ad",
      "m ar",
      "di ff",
      "W or",
      "ro ad",
      "Jo hn",
      "F or",
      "u ch",
      "p ass",
      "ir d",
      "epis ode",
      "s aid",
      "le g",
      "p or",
      "ou se",
      "w est",
      "res s",
      "m is",
      "c he",
      "R o",
      "c ould",
      "ers on",
      "a h",
      "sever al",
      "l in",
      "Amer ican",
      "G r",
      "per i",
      "or n",
      "iel d",
      "v ol",
      "v id",
      "1 4",
      "or igin",
      "call ed",
      "19 7",
      "I I",
      "is ed",
      "comp le",
      "re st",
      "19 6",
      "B r",
      "u ally",
      "s ign",
      "st em",
      "mus ic",
      "sel f",
      "b ed",
      "ce pt",
      "re main",
      "ret urn",
      "st e",
      "op er",
      "be gan",
      "G er",
      "1 3",
      "des ign",
      "tr y",
      "t ing",
      "an k",
      "op le",
      "cho ol",
      "m en",
      "he l",
      "tr ans",
      "de c",
      "st ate",
      "ak ing",
      "ear ly",
      "c i",
      "b all",
      "T r",
      "rele ased",
      "ne ar",
      "d ist",
      "h y",
      "C ol",
      "U S",
      "iv ed",
      "des cri",
      "un e",
      "je ct",
      "unt il",
      "ol og",
      "ar r",
      "op en",
      "suc cess",
      "pl ac",
      "pres ent",
      "s m",
      "h ist",
      "f am",
      "ros s",
      "ar ch",
      "g g",
      "C l",
      "M ay",
      "ist s",
      "b and",
      "off ic",
      "v al",
      "c rit",
      "l ess",
      "g et",
      "over n",
      "5 0",
      "j or",
      "gr oup",
      "g ust",
      "m s",
      "m ay",
      "v ent",
      "al ong",
      "v es",
      "n am",
      "b ers",
      "ow er",
      "m il",
      "to w",
      "mill ion",
      "x t",
      "Brit ish",
      "b re",
      "c ast",
      "or der",
      "s im",
      "v ing",
      "S ep",
      "en n",
      "m et",
      "the se",
      "oc i",
      "com e",
      "r ic",
      "a ther",
      "iz ed",
      "fe ct",
      "or d",
      "att ack",
      "c ut",
      "S p",
      "C ar",
      "c le",
      "B l",
      "le t",
      "W il",
      "te mber",
      "s k",
      "n ational",
      "str al",
      "un d",
      "Sep tember",
      "n ow",
      "Wor ld",
      "Au gust",
      "ur ed",
      "st or",
      "re qu",
      "St ates",
      "b att",
      "to ok",
      "J u",
      "contin u",
      "i b",
      "lar ge",
      "s ame",
      "pe ople",
      "o ot",
      "c a",
      "v ar",
      "charac ter",
      "gr ap",
      "de p",
      "bec ause",
      "vi de",
      "1 1",
      "l ight",
      "is m",
      "pos ition",
      "ir ed",
      "res ult",
      "ar ound",
      "A d",
      "O c",
      "I s",
      "st art",
      "k m",
      "ct or",
      "cl ass",
      "av ing",
      "k ing",
      "c our",
      "iver s",
      "J an",
      "o th",
      "a im",
      "p on",
      "l a",
      "Au stral",
      "m ark",
      "form ed",
      "vis ion",
      "sup port",
      "bu ild",
      "P l",
      "ant s",
      "we ek",
      "t al",
      "follow ing",
      "nor th",
      "ri st",
      "li fe",
      "all ow",
      "sy stem",
      "si x",
      "H owever",
      "P r",
      "is on",
      "af t",
      "tr ack",
      "Oc to",
      "p rom",
      "or k",
      "cons id",
      "y s",
      "e ach",
      "rece ived",
      "im e",
      "ur ch",
      "a x",
      "w ill",
      "Octo ber",
      "ain ed",
      "W est",
      "il ity",
      "i um",
      "pl ace",
      "l ing",
      "s ol",
      "ver y",
      "g overn",
      "ar s",
      "ther n",
      "li am",
      "f ive",
      "j ust",
      "st and",
      "are a",
      "r ight",
      "ward s",
      "cent ury",
      "as k",
      "ap pro",
      "S c",
      "The y",
      "de f",
      "B y",
      "in a",
      "m atch",
      "part ic",
      "ate ly",
      "p le",
      "Nor th",
      "re port",
      "c ity",
      "Y ork",
      "wor ld",
      "ro te",
      "publ ic",
      "bo ok",
      "J une",
      "to p",
      "cont ro",
      "g iv",
      "t le",
      "g er",
      "j o",
      "sm all",
      "ma jor",
      "f ield",
      "cord ing",
      "K ing",
      "2 5",
      "gr ound",
      "Ju ly",
      "C an",
      "M an",
      "l ast",
      "No ve",
      "or gan",
      "Nove mber",
      "play ed",
      "wh at",
      "n er",
      "at ter",
      "t urn",
      "tow n",
      "t it",
      "F e",
      "p erson",
      "s ince",
      "ion al",
      "l ish",
      "sing le",
      "g un",
      "re ad",
      "A pr",
      "e ast",
      "Mar ch",
      "se qu",
      "i k",
      "Apr il",
      "re ach",
      "ag ed",
      "u de",
      "M c",
      "A c",
      "C o",
      "ar m",
      "ev en",
      "c are",
      "h al",
      "ur al",
      "p ri",
      "E u",
      "st er",
      "G e",
      "w on",
      "n ame",
      "b ro",
      "d om",
      "l it",
      "p ower",
      "id ge",
      "diff er",
      "0 s",
      "C oun",
      "vi ous",
      "ic a",
      "ag ue",
      "In di",
      "in ed",
      "te st",
      "fin al",
      "re f",
      "le ft",
      "i er",
      "S outh",
      "r u",
      "du e",
      "M e",
      "P h",
      "g re",
      "u di",
      "s outh",
      "ag es",
      "ev ent",
      "ver sion",
      "D uring",
      "l ist",
      "s chool",
      "De ce",
      "af f",
      "S te",
      "av y",
      "Ger man",
      "Dece mber",
      "E d",
      "th ird",
      "il t",
      "w ater",
      "et s",
      "in cre",
      "mon th",
      "W e",
      "is ion",
      "mo ved",
      "m uch",
      "ch ild",
      "on s",
      "ex pl",
      "an other",
      "ian s",
      "nam ed",
      "Jan uary",
      "includ ed",
      "19 5",
      "O r",
      "b ased",
      "is su",
      "A ll",
      "cl aim",
      "l s",
      "c amp",
      "w rote",
      "al es",
      "19 3",
      "ship s",
      "govern ment",
      "an e",
      "2 4",
      "h ome",
      "k ill",
      "ch an",
      "ap an",
      "Wh en",
      "P e",
      "sh ort",
      "st ory",
      "G u",
      "ber t",
      "i ally",
      "de ath",
      "ap p",
      "u te",
      "ic ally",
      "P ro",
      "at ure",
      "ough t",
      "J apan",
      "od y",
      "ro y",
      "ex t",
      "pres s",
      "us ing",
      "m ake",
      "tem pt",
      "os s",
      "it al",
      "fam ily",
      "re view",
      "h and",
      "fl u",
      "spec ies",
      "h ouse",
      "pe ct",
      "ut ion",
      "ne y",
      "em ent",
      "descri bed",
      "ard s",
      "ren ch",
      "f act",
      "d am",
      "pre vious",
      ".. .",
      "de st",
      "row n",
      "B o",
      "en e",
      "Eu ro",
      "l ate",
      "for man",
      "be li",
      "th ing",
      "re al",
      "ur ther",
      "l er",
      "bu ilt",
      "c as",
      "gen er",
      "il ar",
      "n ess",
      "if ied",
      "form er",
      "be st",
      "m p",
      "t ak",
      "ou te",
      "at tempt",
      "plac ed",
      "g ames",
      "col le",
      "tr act",
      "M on",
      "pol it",
      "ar ed",
      "he ld",
      "comm and",
      "at s",
      "P ar",
      "p ut",
      "et y",
      "st ud",
      "st it",
      "for d",
      "st ill",
      "H is",
      "v o",
      "origin al",
      "gr am",
      "th ose",
      "l im",
      "d en",
      "con stru",
      "add ition",
      "au gh",
      "Fe br",
      "Febr uary",
      "g y",
      "f el",
      "ne xt",
      "ent ly",
      "ef fect",
      "Ch rist",
      "at or",
      "2 2",
      "m id",
      "f all",
      "th or",
      "Th ere",
      "f ri",
      "per forman",
      "1 00",
      "h am",
      "mem bers",
      "s ent",
      "r ican",
      "en ces",
      "ction s",
      "v an",
      "G en",
      "in c",
      "N ational",
      "us h",
      "m it",
      "L i",
      "Euro pe",
      "2 1",
      "b ur",
      "ivers ity",
      "day s",
      "peri od",
      "with in",
      "ch ed",
      "in es",
      "F rench",
      "ro le",
      "rele ase",
      "z e",
      "in it",
      "al though",
      "mo ve",
      "w ind",
      "vide o",
      "h ip",
      "s ay",
      "ran k",
      "hal f",
      "201 0",
      "2 3",
      "n a",
      "est ab",
      "H er",
      "c ame",
      "S er",
      "ar ri",
      "p s",
      "An d",
      "in k",
      "w om",
      "Wil liam",
      "rop ical",
      "continu ed",
      "l aw",
      "al i",
      "2 7",
      "cr aft",
      "ain ing",
      "r is",
      "n ing",
      "ain s",
      "h um",
      "us s",
      "r ound",
      "ul ation",
      "ri but",
      "on es",
      "w in",
      "s ou",
      "pos ed",
      "h owever",
      "end ing",
      "s en",
      "it ary",
      "200 8",
      "2 8",
      "f ac",
      "r al",
      "inn ing",
      "u c",
      "200 9",
      "Ge or",
      "of ten",
      "y ou",
      "ri ed",
      "fe w",
      "r ad",
      "ist er",
      "im es",
      "e qu",
      "m ag",
      "B ar",
      "st ri",
      "amp ion",
      "t ake",
      "i x",
      "w ood",
      "fri end",
      "D es",
      "loc al",
      "E ar",
      "play er",
      "201 1",
      "A ir",
      "sim ilar",
      "2 6",
      "4 0",
      "am ong",
      "be g",
      "In ter",
      "produ ction",
      "M ich",
      "i or",
      "on y",
      "for ce",
      "p ite",
      "w ent",
      "differ ent",
      "at ic",
      "o ve",
      "Ch ar",
      "ch ang",
      "er y",
      "mis sion",
      "id es",
      "pos si",
      "Eng land",
      "stor m",
      "O ne",
      "str ong",
      "f urther",
      "n ight",
      "H ar",
      "M us",
      "po st",
      "st y",
      "consid ered",
      "a e",
      "comp any",
      "D av",
      "le vel",
      "ser ved",
      "f ire",
      "ic es",
      "a ver",
      "200 7",
      "id ed",
      "care er",
      "u ck",
      "un g",
      "a i",
      "ive ly",
      "pro vid",
      "C ity",
      "E ast",
      "h aving",
      "for t",
      "P ark",
      "act ion",
      "g ed",
      "i ent",
      "comm un",
      "ex p",
      "tr ad",
      "F r",
      "te le",
      "Eng lish",
      "qu e",
      "f ron",
      "ent er",
      "op s",
      "S o",
      "cl ub",
      "ever y",
      "iv es",
      "h old",
      "with out",
      "hist ory",
      "re fer",
      "Al though",
      "land s",
      "st udi",
      "w ide",
      "grap h",
      "writ ten",
      "Sc ot",
      "201 2",
      "ste ad",
      "be come",
      "bo ard",
      "2 9",
      "re et",
      "res pon",
      "L ond",
      "in flu",
      "An g",
      "Lond on",
      "f oot",
      "s ound",
      "E x",
      "s cor",
      "W ith",
      "gg est",
      "is s",
      "R iver",
      "M o",
      "B att",
      "in vol",
      "su ggest",
      "ing ton",
      "19 0",
      "b or",
      "t ro",
      "N e",
      "giv en",
      "b us",
      "pr of",
      "ann oun",
      "di vid",
      "oun g",
      "m and",
      "ke y",
      "d s",
      "T e",
      "w ant",
      "S y",
      "c ial",
      "T o",
      "c op",
      "com b",
      "u g",
      "build ing",
      "chan ge",
      "H igh",
      "Can ad",
      "im p",
      "F l",
      "f r",
      "im ent",
      "f ather",
      "g ave",
      "success ful",
      "com mon",
      "publ ished",
      "cl ose",
      "P ol",
      "Un iversity",
      "im port",
      "st ated",
      "se ven",
      "su re",
      "g ood",
      "g n",
      "ne ver",
      "Wh ile",
      "ail ed",
      "return ed",
      "an im",
      "be h",
      "om in",
      "produ ced",
      "to tal",
      "au thor",
      "f ace",
      "pro te",
      "coun try",
      "de l",
      "b ar",
      "ev ed",
      "aw ay",
      "se e",
      "h our",
      "are n",
      "qu ad",
      "C or",
      "s it",
      "pop ular",
      "to ur",
      "om et",
      "a ur",
      "ab ly",
      "f un",
      "report ed",
      "D iv",
      "D r",
      "d ri",
      "lo st",
      "200 6",
      "pro gram",
      "cap t",
      "ch n",
      "comp os",
      "g reat",
      "a ign",
      "way s",
      "ve st",
      "partic ular",
      "am a",
      "dr aw",
      "k s",
      "m aking",
      "ren t",
      "ver s",
      "incl ude",
      "en ed",
      "h ow",
      "Ac cording",
      "de cl",
      "s oci",
      "inter est",
      "stru ct",
      "olog y",
      "record ed",
      "in du",
      "cover ed",
      "o x",
      "f le",
      "for ces",
      "ne ed",
      "v ict",
      "dire ct",
      "b ody",
      "ur rican",
      "ition s",
      "A m",
      "s ite",
      "Ph il",
      "sh ould",
      "pl an",
      "v oc",
      "pl oy",
      "qu ar",
      "serv ice",
      "um ent",
      "su ff",
      "mo der",
      "performan ce",
      "di ed",
      "te en",
      "tim es",
      "n et",
      "Th ese",
      "gr ad",
      "an a",
      "com ing",
      "f an",
      "ro ck",
      "p en",
      "n ed",
      "R oy",
      "air craft",
      "s um",
      "him self",
      "201 3",
      "te ll",
      "int ro",
      "mil itary",
      "f lo",
      "p ur",
      "in ess",
      "J ack",
      "dep end",
      "Austral ia",
      "ro om",
      "batt le",
      "b as",
      "ag re",
      "a ul",
      "P res",
      "song s",
      "ast er",
      "ele ct",
      "M in",
      "mem ber",
      "R ep",
      "c ing",
      "it ch",
      "g l",
      "crit ic",
      "develop ment",
      "Gen eral",
      "B C",
      "St ate",
      "x im",
      "se arch",
      "fron t",
      "al th",
      "re present",
      "a el",
      "s w",
      "18 9",
      "it ive",
      "lo ok",
      "g es",
      "6 0",
      "ac y",
      "s l",
      "ak es",
      "hist or",
      "J ames",
      "develop ed",
      "ist r",
      "v ir",
      "R om",
      "med i",
      "contro l",
      "intro du",
      "dest roy",
      "st ar",
      "n al",
      "child ren",
      "G re",
      "remain ed",
      "S m",
      "pt ion",
      "ran ge",
      "f av",
      "charac ters",
      "Ar my",
      "ch art",
      "tit le",
      "or ed",
      "re w",
      "m m",
      "cle ar",
      "month s",
      "S u",
      "e y",
      "is ing",
      "u es",
      "ith er",
      "r ap",
      "il le",
      "en se",
      "camp aign",
      "oc cur",
      "ab ility",
      "Le ague",
      "c ult",
      "urrican e",
      "c ir",
      "tak en",
      "om b",
      "e ight",
      "ge ther",
      "comp et",
      "fel t",
      "ot s",
      "t ropical",
      "sign ific",
      "writ ing",
      "ac ross",
      "se en",
      "pro ject",
      "C ap",
      "t ar",
      "pr a",
      "er ing",
      "br idge",
      "st ation",
      "g est",
      "to o",
      "cre ated",
      "T w",
      "Amer ica",
      "appear ed",
      "announ ced",
      "not ed",
      "al ter",
      "Div ision",
      "S w",
      "Geor ge",
      "reach ed",
      "ap point",
      "c il",
      "H en",
      "h or",
      "g in",
      "ex peri",
      "act iv",
      "Coun ty",
      "us es",
      "work s",
      "are as",
      "o v",
      "tele vision",
      "s aw",
      "P er",
      "M a",
      "f ight",
      "200 5",
      "Ro ad",
      "Japan ese",
      "le ct",
      "pr im",
      "co st",
      "per formed",
      "re am",
      "var ious",
      "polit ical",
      "bre ak",
      "St reet",
      "comple te",
      "follow ed",
      "h ar",
      "ful l",
      "it ing",
      "al ity",
      "r ace",
      "play ers",
      "ag o",
      "tr ave",
      "sty le",
      "201 4",
      "in v",
      "m b",
      "m ot",
      "ard ed",
      "ab or",
      "bl ack",
      "pro cess",
      "m ph",
      "mi x",
      "n on",
      "M ad",
      "ant ic",
      "w all",
      "o to",
      "point s",
      "kill ed",
      "ie f",
      "iz ation",
      "hel p",
      "h it",
      "be t",
      "be l",
      "cre w",
      "lin es",
      "li ve",
      "l ished",
      "s ess",
      "through out",
      "se x",
      "te chn",
      "st at",
      "to gether",
      "form ation",
      "cr u",
      "de but",
      "lit tle",
      "E l",
      "f em",
      "estab lished",
      "signific ant",
      "me et",
      "b road",
      "tr a",
      "Th om",
      "ul l",
      "ic ult",
      "co ast",
      "though t",
      "constru ction",
      "av al",
      "f ar",
      "fin d",
      "Re g",
      "p air",
      "mil es",
      "ear li",
      "do es",
      "en ced",
      "im pro",
      "b orn",
      "Dav id",
      "od es",
      "g ot",
      "Mich ael",
      "p ain",
      "ent ire",
      "is sion",
      "Austral ian",
      "st age",
      "r ain",
      "at ors",
      "y oung",
      "R ich",
      "rel ation",
      "S an",
      "M ed",
      "spec ial",
      "wom en",
      "con om",
      "r oute",
      "Q u",
      "con ne",
      "dec ided",
      "B ill",
      "ac c",
      "Y ou",
      "P art",
      "iv il",
      "c ase",
      "i ble",
      "an ces",
      "8 0",
      "ca used",
      "start ed",
      "gen eral",
      "h o",
      "se ll",
      "play ing",
      "feat ures",
      "F in",
      "wh ite",
      "g row",
      "H ouse",
      "av es",
      "on ce",
      "event ually",
      "te e",
      "p at",
      "amp le",
      "ist ed",
      "man ag",
      "S ch",
      "h ost",
      "s old",
      "st ant",
      "L u",
      "fe et",
      "Roy al",
      "add ed",
      "open ed",
      "al d",
      "moder n",
      "loc ated",
      "ter min",
      "M y",
      "H ist",
      "it ar",
      "id ence",
      "in j",
      "b ase",
      "i fe",
      "quad ron",
      "ampion ship",
      "var i",
      "S ome",
      "ad v",
      "dis c",
      "It al",
      "in stead",
      "P o",
      "ens ive",
      "D on",
      "M al",
      "y n",
      "cl os",
      "Bl ack",
      "pe ak",
      "h on",
      "cre t",
      "Mus ic",
      "import ant",
      "cur rent",
      "ut es",
      "se ction",
      "the ast",
      "B er",
      "at a",
      "Com p",
      "B el",
      "c ross",
      "oc ial",
      "m oun",
      "ur b",
      "comple ted",
      "possi ble",
      "end s",
      "in ation",
      "el s",
      "r ing",
      "work ed",
      "one y",
      "co gn",
      "y ing",
      "d on",
      "oth ers",
      "c ause",
      "er a",
      "f ree",
      "pop ulation",
      "200 4",
      "pr ed",
      "au di",
      "m ater",
      "H ol",
      "f ig",
      "ll ed",
      "p ie",
      "lead ing",
      "t re",
      "ty p",
      "qu est",
      "3 1",
      "ot ed",
      "A b",
      "l oss",
      "ra ther",
      "ch urch",
      "gun s",
      "beh ind",
      "d le",
      "sc ri",
      "ch es",
      "Ro bert",
      "up on",
      "ce ed",
      "pr act",
      "C r",
      "7 0",
      "for ced",
      "li e",
      "com ment",
      "l ack",
      "al k",
      "mo ther",
      "in vest",
      "Fr ance",
      "f if",
      "in o",
      "am b",
      "C ent",
      "201 5",
      "ay s",
      "kn ow",
      "v ill",
      "he avy",
      "N A",
      "m ing",
      "A ct",
      "e cut",
      "part y",
      "S chool",
      "res pect",
      "no vel",
      "sub sequ",
      "R uss",
      "pro ble",
      "3 5",
      "V i",
      "re ve",
      "ac cept",
      "diff icult",
      "W ash",
      "hum an",
      "work ing",
      "h ard",
      "se par",
      "ass oci",
      "jo ined",
      "week s",
      "M or",
      "ter m",
      "H am",
      "Hen ry",
      "col l",
      "sc ene",
      "origin ally",
      "av ail",
      "A le",
      "E m",
      "as ing",
      "or ies",
      "ang u",
      "pres sion",
      "scor ed",
      "al most",
      "in st",
      "18 8",
      "dam age",
      "t ies",
      "sp ir",
      "g ar",
      "Batt le",
      "m ass",
      "allow ed",
      "id s",
      "iv al",
      "four th",
      "B est",
      "S pe",
      "am ent",
      "R ed",
      "ign ed",
      "appro ach",
      "read y",
      "provid ed",
      "V ir",
      "eng ine",
      "F ir",
      "go al",
      "d rop",
      "low er",
      "op e",
      "M il",
      "P ort",
      "claim ed",
      "su per",
      "T V",
      "c up",
      "want ed",
      "reg ular",
      "D an",
      "P aul",
      "em ploy",
      "5 00",
      "ce ll",
      "M ac",
      "br ought",
      "Q ue",
      "n at",
      "ap s",
      "trad ition",
      "ul a",
      "C our",
      "G l",
      "comp an",
      "F ran",
      "b al",
      "in divid",
      "feat ured",
      "Pres ident",
      "le ast",
      "la un",
      "w ife",
      "he st",
      "e conom",
      "aver age",
      "so on",
      "pass ed",
      "bus iness",
      "cr ed",
      "to wards",
      "reg ion",
      "ree k",
      "run s",
      "tem por",
      "a ut",
      "Wash ington",
      "re cogn",
      "Pl ay",
      "cour t",
      "crit ics",
      "az ine",
      "west ern",
      "ct s",
      "red u",
      "18 6",
      "qu ick",
      "coun ter",
      "est im",
      "off ice",
      "e ither",
      "con tract",
      "prof ess",
      "R es",
      "s our",
      "form s",
      "pl ann",
      "de fe",
      "em y",
      "r ail",
      "u el",
      "l eng",
      "ex ample",
      "J e",
      "u k",
      "Ang el",
      "n omin",
      "n ia",
      "O ther",
      "ic ated",
      "f oc",
      "m ult",
      "tro ops",
      "d ou",
      "r id",
      "fin ished",
      "ad es",
      "ic o",
      "ar my",
      "s cre",
      "h om",
      "as y",
      "200 3",
      "Des pite",
      "con cl",
      "r ul",
      "m al",
      "sh ot",
      "un k",
      "F ollow",
      "G ame",
      "cir c",
      "gener ally",
      "m un",
      "i als",
      "ill s",
      "pro per",
      "con du",
      "w he",
      "de t",
      "f re",
      "ap er",
      "b es",
      "p ly",
      "os p",
      "cy cl",
      "se a",
      "ant i",
      "Col le",
      "f ed",
      "com pl",
      "leng th",
      "ev ents",
      "cer t",
      "beli eved",
      "C up",
      "ke ep",
      "St ar",
      "Fir st",
      "h a",
      "partic ip",
      "al ed",
      "Follow ing",
      "part s",
      "M ary",
      "t ic",
      "f und",
      "sc en",
      "p ing",
      "i us",
      "ent ion",
      "vict ory",
      "re placed",
      "ci ally",
      "b ound",
      "n ine",
      "4 5",
      "t or",
      "design ed",
      "ict ion",
      "avail able",
      "is land",
      "D ep",
      "7 5",
      "olog ical",
      "offic ial",
      "it or",
      "L ou",
      "se le",
      "hour s",
      "ev ol",
      "Europe an",
      "con c",
      "invol ved",
      "pres ident",
      "Tw o",
      "h ab",
      "open ing",
      "M er",
      "pr ison",
      "S un",
      "st op",
      "b ri",
      "ent ial",
      "port s",
      "t a",
      "ask ed",
      "h ous",
      "cer tain",
      "ist ic",
      "te l",
      "turn ed",
      "st one",
      "ex ecut",
      "com es",
      "er ous",
      "c al",
      "ex ist",
      "dire ctor",
      "Rom an",
      "v ille",
      "say ing",
      "th reat",
      "200 0",
      "comm it",
      "appear ance",
      "p ark",
      "lo ve",
      "n d",
      "ig hest",
      "w atch",
      "M id",
      "min utes",
      "writ er",
      "oun t",
      "lar gest",
      "high way",
      "s il",
      "sou thern",
      "R oute",
      "Scot t",
      "t aking",
      "m ir",
      "iz e",
      "com mer",
      "ish ing",
      "V al",
      "ubl ic",
      "go ing",
      "sur vi",
      "h ighest",
      "F rom",
      "200 1",
      "earli er",
      "At l",
      "S ing",
      "D o",
      "init ially",
      "per cent",
      "v ice",
      "particular ly",
      "tr aining",
      "Wh ite",
      "ers hip",
      "b it",
      "le ar",
      "M ag",
      "M art",
      "ly ing",
      "9 0",
      "grap hy",
      "ed uc",
      "bo x",
      "m ust",
      "Ch urch",
      "ass ist",
      "order ed",
      "p ot",
      "issu e",
      "Char les",
      "King dom",
      "N avy",
      "a j",
      "sign ed",
      "th us",
      "h ib",
      "ate g",
      "p ond",
      "p ers",
      "O ff",
      "H all",
      "Thom as",
      "we ak",
      "s ocial",
      "cent ral",
      "tri es",
      "z a",
      "ut ure",
      "en cy",
      "ap e",
      "spe ed",
      "main tain",
      "studi o",
      "pra ised",
      "b ow",
      "D is",
      "pe cted",
      "ali for",
      "Inter national",
      "b ill",
      "ific ation",
      "Sm ith",
      "B ut",
      "d ate",
      "l angu",
      "g ress",
      "cept ion",
      "re ason",
      "Vir gin",
      "C am",
      "incre ased",
      "de al",
      "A A",
      "p ast",
      "nor thern",
      "h urricane",
      "un its",
      "re search",
      "P al",
      "200 2",
      "r ac",
      "v in",
      "rel ig",
      "vi a",
      "B ay",
      "ty pe",
      "str y",
      "de part",
      "me as",
      "Canad a",
      "p ay",
      "de li",
      "B ur",
      "C alifor",
      "comm ission",
      "ag on",
      "P ri",
      "ri an",
      "S am",
      "h ol",
      "R ock",
      "B ro",
      "H o",
      "me an",
      "im medi",
      "om er",
      "ay ed",
      "d augh",
      "ac qu",
      "D u",
      "S en",
      "il ities",
      "relation ship",
      "im in",
      "fan try",
      "Pe ter",
      "Rich ard",
      "press ed",
      "b omb",
      "in depend",
      "Ale x",
      "M i",
      "us ually",
      "to ld",
      "bet ter",
      "Indi an",
      "S al",
      "Califor nia",
      "ick et",
      "s at",
      "S k",
      "en ough",
      "n el",
      "st ates",
      "wind s",
      "Un ion",
      "B en",
      "ar ing",
      "s ed",
      "r up",
      "pos itive",
      "j our",
      "G od",
      "Cour t",
      "B rown",
      "s al",
      "Is land",
      "conc ern",
      "st on",
      "sp ent",
      "um e",
      "ph ys",
      "ac cording",
      "fer ence",
      "appoint ed",
      "T om",
      "ab ove",
      "ic le",
      "ar ily",
      "film s",
      "fe el",
      "t ion",
      "A p",
      "out side",
      "S tr",
      "G reat",
      "C ong",
      "ac coun",
      "foot ball",
      "b ird",
      "ank s",
      "A ward",
      "en er",
      "qu are",
      "l ay",
      "previous ly",
      "record ing",
      "act ive",
      "m ur",
      "respon si",
      "stand ing",
      "As soci",
      "cont ribut",
      "lo ad",
      "us ion",
      "de fin",
      "ac cess",
      "f ailed",
      "P re",
      "se y",
      "Comp any",
      "requ ired",
      "ele ments",
      "em s",
      "ren g",
      "oc cup",
      "18 7",
      "N Y",
      "k en",
      "t reat",
      "T er",
      "over nor",
      "g ir",
      "Indi a",
      "V ict",
      "Ger many",
      "review s",
      "vi ol",
      "g a",
      "dire cted",
      "S ou",
      "id a",
      "at in",
      "M ark",
      "inter view",
      "al ion",
      "wor d",
      "i que",
      "omet imes",
      "II I",
      "Christ ian",
      "it self",
      "g ive",
      "group s",
      "ver t",
      "re me",
      "at ers",
      "inn er",
      "sc ore",
      "des pite",
      "res pond",
      "b our",
      "th od",
      "F rank",
      "T imes",
      "S im",
      "pro b",
      "U K",
      "L a",
      "on to",
      "per form",
      "n s",
      "C ast",
      "K e",
      "ide a",
      "sp ace",
      "beg inning",
      "introdu ced",
      "min istr",
      "Colle ge",
      "scri pt",
      "sol di",
      "h app",
      "b i",
      "f requ",
      "st reng",
      "ep t",
      "fl ight",
      "who se",
      "s us",
      "ic ation",
      "pri v",
      "ig an",
      "bl ock",
      "trans fer",
      "J er",
      "an al",
      "en ing",
      "G old",
      "West ern",
      "le ague",
      "T ri",
      "M ex",
      "ed y",
      "c ul",
      "to m",
      "as es",
      "pre vent",
      "bro ther",
      "chang es",
      "re cent",
      "So vi",
      "p il",
      "g old",
      "H ill",
      "con f",
      "ele ction",
      "defe ated",
      "B u",
      "addition al",
      "a ult",
      "j ud",
      "s ch",
      "Gr and",
      "ap pl",
      "f uture",
      "ber g",
      "ar a",
      "wh om",
      "po or",
      "inter national",
      "M et",
      "ph oto",
      "Sp an",
      "A wards",
      "n ative",
      "ex ten",
      "struct ure",
      "cor por",
      "ev idence",
      "chang ed",
      "se m",
      "ar gu",
      "3 3",
      "quick ly",
      "cent er",
      "mark et",
      "spec ific",
      "For ce",
      "rad io",
      "b en",
      "al ready",
      "um b",
      "Th at",
      "D ay",
      "sit u",
      "at ory",
      "mater ial",
      "ain t",
      "ri ver",
      "M ost",
      "co ach",
      "em p",
      "p et",
      "di es",
      "ct ive",
      "agre ed",
      "li es",
      "it z",
      "arri ved",
      "c ivil",
      "stud y",
      "st aff",
      "Brit ain",
      "like ly",
      "M ill",
      "s low",
      "use um",
      "dec ision",
      "ly r",
      "F ilm",
      "s pr",
      "cour se",
      "sub ject",
      "h op",
      "m oney",
      "fem ale",
      "d ed",
      "Ch in",
      "es pe",
      "m ight",
      "s ometimes",
      "lim ited",
      "sur face",
      "fle et",
      "p an",
      "respon se",
      "f ood",
      "n ames",
      "ict ed",
      "mag azine",
      "P ac",
      "act ions",
      "espe cially",
      "n ation",
      "f low",
      "3 6",
      "L ater",
      "liam ent",
      "Vict or",
      "estim ated",
      "broad cast",
      "flo od",
      "Ch ampionship",
      "car ried",
      "be ll",
      "O ver",
      "consid er",
      "pl es",
      "wor th",
      "P at",
      "r or",
      "show s",
      "en a",
      "p aren",
      "commun ity",
      "gu itar",
      "b ot",
      "ud ed",
      "list ed",
      "r ate",
      "pl ant",
      "mus ical",
      "pre par",
      "te xt",
      "is es",
      "si ze",
      "scen es",
      "199 9",
      "is l",
      "arr ison",
      "rel ated",
      "remain ing",
      "y l",
      "3 7",
      "east ern",
      "min or",
      "L os",
      "em er",
      "ven ue",
      "person al",
      "nat ural",
      "be coming",
      "Ear ly",
      "Virgin ia",
      "lar ger",
      "di vision",
      "med ia",
      "l atter",
      "ent ered",
      "ob ject",
      "fav or",
      "y ard",
      "right s",
      "su it",
      "d oc",
      "pol ice",
      "sum mer",
      "mar ried",
      "suggest ed",
      "pres sure",
      "appro xim",
      "team s",
      "bri ef",
      "lit er",
      "arr ang",
      "J ust",
      "bur g",
      "ad ap",
      "it er",
      "m or",
      "Y ear",
      "daugh ter",
      "t ax",
      "invest ig",
      "ex per",
      "estab lish",
      "Jack son",
      "sur round",
      "stud ents",
      "ar i",
      "k il",
      "Se cond",
      "T y",
      "tempor ary",
      "effect s",
      "Ch ic",
      "T ex",
      "ton s",
      "wom an",
      "3 8",
      "pri or",
      "epis odes",
      "I f",
      "Fl or",
      "F le",
      "f it",
      "C al",
      "T our",
      "cl im",
      "O ly",
      "i res",
      "Lou is",
      "av o",
      "set t",
      "ir th",
      "w inning",
      "3 2",
      "4 9",
      "mo de",
      "Gre en",
      "le aving",
      "Oly mp",
      "destroy ed",
      "vir on",
      "sel ves",
      "n y",
      "track s",
      "son s",
      "L ord",
      "jo in",
      "equ ip",
      "f ail",
      "vi e",
      "Cl ub",
      "Span ish",
      "A ust",
      "re li",
      "C he",
      "mo cr",
      "pro vide",
      "and er",
      "cre ate",
      "rel ative",
      "ig ade",
      "ter rit",
      "pol ic",
      "ar ies",
      "id ents",
      "qu al",
      "s po",
      "pro posed",
      "b ig",
      "int ended",
      "influ ence",
      "Part y",
      "I m",
      "over all",
      "ver se",
      "capt ured",
      "at o",
      "Sovi et",
      "b urn",
      "mo ving",
      "dist r",
      "il i",
      "oc cas",
      "R ob",
      "ful ly",
      "run ning",
      "Su per",
      "art ment",
      "support ed",
      "l ot",
      "Associ ation",
      "th ers",
      "es cap",
      "quar ter",
      "ab s",
      "D el",
      "p urch",
      "f ell",
      "h an",
      "Chic ago",
      "ex pected",
      "m ach",
      "near ly",
      "M any",
      "L ove",
      "L o",
      "pre ad",
      "for ward",
      "b a",
      "sy n",
      "hel ped",
      "move ment",
      "199 8",
      "Chin ese",
      "aw arded",
      "S ong",
      "br ing",
      "mix ed",
      "commer cial",
      "n u",
      "be y",
      "se cut",
      "mark ed",
      "Coun cil",
      "d y",
      "clos ed",
      "issu ed",
      "O per",
      "experi ence",
      "cons ist",
      "c it",
      "18 5",
      "st ars",
      "str a",
      "Re cord",
      "f ish",
      "Ed ward",
      "d ark",
      "D i",
      "G o",
      "ph en",
      "En ter",
      "Z e",
      "plann ed",
      "de ad",
      "bre ed",
      "3 4",
      "3 00",
      "h ood",
      "d one",
      "p ow",
      "b ility",
      "j oy",
      "leg al",
      "w ing",
      "ip le",
      "H u",
      "f ans",
      "long er",
      "oper ation",
      "langu age",
      "at tract",
      "high er",
      "b on",
      "d ig",
      "comp ared",
      "incre asing",
      "lead er",
      "b ad",
      "ce le",
      "l or",
      "de ep",
      "ol k",
      "John son",
      "to uch",
      "li ving",
      "approxim ately",
      "i ence",
      "I r",
      "B al",
      "pr int",
      "feat ure",
      "tem per",
      "fif th",
      "B ack",
      "them selves",
      "K ore",
      "Ar t",
      "Hist ory",
      "1 st",
      "produ cer",
      "scre en",
      "M r",
      "b ury",
      "ic les",
      "most ly",
      "am s",
      "4 8",
      "Pac ific",
      "int ens",
      "ric a",
      "Bill board",
      "th ink",
      "C ro",
      "oper ations",
      "c u",
      "remain s",
      "fin an",
      "de feat",
      "or ial",
      "ch all",
      "appear s",
      "mit ted",
      "we ap",
      "M ur",
      "build ings",
      "augh t",
      "whe ther",
      "Un der",
      "M S",
      "end er",
      "k ed",
      "w a",
      "pl ot",
      "ext ended",
      "cop ies",
      "prob ably",
      "soldi ers",
      "sp ired",
      "we ight",
      "Ar ch",
      "vo ice",
      "Que en",
      "st ream",
      "po se",
      "he av",
      "S quadron",
      "199 7",
      "S ince",
      "comple x",
      "ro ll",
      "por tr",
      "Atl antic",
      "T or",
      "lyr ics",
      "F A",
      "de b",
      "af fe",
      "ig r",
      "sh oot",
      "m el",
      "f ill",
      "je cted",
      "trans port",
      "batt les",
      "re ally",
      "b an",
      "coun tries",
      "ri age",
      "T est",
      "osp ital",
      "bo y",
      "3 9",
      "c m",
      "l os",
      "suff ered",
      "L aw",
      "L ake",
      "and on",
      "R ad",
      "go als",
      "S ever",
      "Flor ida",
      "de mand",
      "ct ing",
      "B ig",
      "includ es",
      "T ur",
      "c is",
      "he alth",
      "issu es",
      "immedi ately",
      "cap ital",
      "B oth",
      "4 7",
      "B et",
      "M at",
      "Se a",
      "m at",
      "b s",
      "manag er",
      "r ich",
      "priv ate",
      "vis it",
      "er t",
      "requ est",
      "J im",
      "Le g",
      "am ed",
      "J ew",
      "offic ers",
      "col on",
      "O t",
      "fl ag",
      "F ort",
      "M el",
      "tar get",
      "le ave",
      "ul tim",
      "loc ation",
      "ag ing",
      "g as",
      "Tr ans",
      "m ic",
      "St ation",
      "exp and",
      "re moved",
      "ad o",
      "r at",
      "Tex as",
      "fl ict",
      "incre ase",
      "y ards",
      "f ast",
      "b irth",
      "port ion",
      "subsequ ently",
      "O ld",
      "stat us",
      "pl ans",
      "T own",
      "g ing",
      "al ways",
      "off ered",
      "con fir",
      "serv ices",
      "St udi",
      "up per",
      "Ch ina",
      "An other",
      "ous ly",
      "S ci",
      "ve y",
      "evol ution",
      "H ow",
      "sh ire",
      "ak er",
      "in str",
      "proble ms",
      "attack s",
      "is er",
      "m as",
      "Ear th",
      "de mon",
      "tain ment",
      "tw ent",
      "hab it",
      "ph y",
      "res er",
      "stit ut",
      "for ts",
      "ter ms",
      "ail y",
      "some thing",
      "profess ional",
      "cast le",
      "car ry",
      "P an",
      "ad ministr",
      "vill age",
      "B oy",
      "tak es",
      "con tr",
      "B ra",
      "R ail",
      "W ood",
      "major ity",
      "il es",
      "orn ing",
      "dis cover",
      "E mp",
      "dis covered",
      "ne g",
      "viron ment",
      "B ow",
      "m outh",
      "m akes",
      "Canad ian",
      "j ob",
      "rank ed",
      "con cept",
      "compos ed",
      "be at",
      "ce an",
      "C enter",
      "ass igned",
      "min ute",
      "Af rica",
      "op h",
      "ele cted",
      "ad op",
      "ot ion",
      "ur ies",
      "dam aged",
      "init ial",
      "ad ium",
      "meet ing",
      "n es",
      "z z",
      "che ster",
      "It s",
      "ol ic",
      "R A",
      "r d",
      "D V",
      "on na",
      "ul ated",
      "V an",
      "reve aled",
      "individ ual",
      "High way",
      "S ir",
      "in spired",
      "giv ing",
      "ra ised",
      "at ives",
      "Russ ian",
      "4 6",
      "ite ct",
      "li ved",
      "m ist",
      "y et",
      "play s",
      "Car ol",
      "H al",
      "H ot",
      "ail s",
      "ne cess",
      "he art",
      "in ent",
      "Mart in",
      "respect ively",
      "associ ated",
      "gr and",
      "K ent",
      "u ter",
      "attack ed",
      "act or",
      "Cent ral",
      "num erous",
      "199 5",
      "need ed",
      "an ch",
      "c ers",
      "r out",
      "Angel es",
      "stit ute",
      "C le",
      "c and",
      "ve h",
      "ul f",
      "n ature",
      "Fran cis",
      "sc ient",
      "friend s",
      "V er",
      "po ol",
      "dist ribut",
      "imp act",
      "laun ched",
      "Mon t",
      "stit ution",
      "constru cted",
      "dom in",
      "C y",
      "cond itions",
      "book s",
      "occur red",
      "st ep",
      "id er",
      "in formation",
      "cont ains",
      "s ales",
      "est ival",
      "sh own",
      "e ch",
      "Cong ress",
      "attempt ed",
      "u als",
      "um ents",
      "t ur",
      "2 nd",
      "ex am",
      "B ob",
      "ic ations",
      "pie ce",
      "stru ction",
      "R u",
      "sing er",
      "crit ical",
      "Pr ince",
      "201 6",
      "se cur",
      "k ind",
      "who le",
      "F er",
      "de v",
      "N ot",
      "199 6",
      "19 th",
      "c ere",
      "Gr oup",
      "O ut",
      "m om",
      "19 50",
      "ion ed",
      "de pression",
      "b io",
      "let ter",
      "ear ned",
      "refer red",
      "produ ce",
      "Emp ire",
      "vent ion",
      "Pro du",
      "P enn",
      "am ount",
      "k a",
      "v ic",
      "C amp",
      "ren der",
      "sele cted",
      "um ed",
      "S to",
      "J ose",
      "num bers",
      "hous es",
      "dist in",
      "fin ally",
      "in ch",
      "small er",
      "ch ief",
      "re vol",
      "result ed",
      "g ain",
      "ad van",
      "fight ing",
      "et t",
      "b ank",
      "gr ant",
      "R h",
      "G ar",
      "cap tain",
      "Ital ian",
      "el low",
      "cele br",
      "s light",
      "199 4",
      "indu stry",
      "b ul",
      "w ound",
      "large ly",
      "un it",
      "wor ds",
      "S ol",
      "j un",
      "DV D",
      "c oup",
      "o il",
      "d ol",
      "ord in",
      "comment ed",
      "pre mi",
      "if y",
      "ip p",
      "g ent",
      "Cor ps",
      "C rit",
      "E li",
      "5 5",
      "s ched",
      "if t",
      "audi ence",
      "iz ing",
      "not es",
      "act ing",
      "educ ation",
      "un able",
      "tradition al",
      "s pl",
      "tr ade",
      "if f",
      "im m",
      "art ist",
      "leg isl",
      "L ong",
      "ate st",
      "direct ly",
      "Fin al",
      "li f",
      "impro ve",
      "dou ble",
      "s ister",
      "bl ood",
      "att ention",
      "l av",
      "Vi et",
      "ref used",
      "l ock",
      "ow s",
      "car ri",
      "mo s",
      "position s",
      "um p",
      "18 0",
      "me thod",
      "sk i",
      "new sp",
      "we b",
      "roy al",
      "prim ary",
      "igh ter",
      "Com mand",
      "hor se",
      "se cret",
      "d ro",
      "al and",
      "al le",
      "E r",
      "H el",
      "Mich igan",
      "ach i",
      "quar ters",
      "spe ct",
      "her o",
      "m ale",
      "tr ain",
      "grad u",
      "be low",
      "offic er",
      "M ass",
      "sc ience",
      "decl ared",
      "ut ch",
      "inst all",
      "en joy",
      "W ales",
      "me ant",
      "S ar",
      "M ore",
      "performan ces",
      "relig ious",
      "stand ard",
      "ind ic",
      "4 4",
      "C ath",
      "Rep ublic",
      "und red",
      "own ed",
      "ad y",
      "mid dle",
      "command er",
      "r ay",
      "con flict",
      "p ul",
      "re pe",
      "reg ard",
      "O x",
      "o o",
      "match es",
      "S up",
      "ord ers",
      "m es",
      "h i",
      "C are",
      "w ear",
      "mo del",
      "record s",
      "De mocr",
      "Ac ad",
      "r ated",
      "v a",
      "L in",
      "ip al",
      "G i",
      "th r",
      "Te am",
      "pro gress",
      "ut en",
      "distr ict",
      "k es",
      "ant asy",
      "compet ition",
      "ser ious",
      "di e",
      "of t",
      "L it",
      "ran ch",
      "sess ion",
      "M em",
      "sever e",
      "voc als",
      "view ers",
      "nor theast",
      "Min ister",
      "dr um",
      "Sever al",
      "199 2",
      "Ma jor",
      "T re",
      "w ick",
      "at re",
      "b ing",
      "doc ument",
      "ab andon",
      "Ch ris",
      "ener gy",
      "mir al",
      "rap id",
      "or m",
      "cent re",
      "cas es",
      "ar row",
      "y a",
      "F ore",
      "fore st",
      "c am",
      "6 5",
      "d ut",
      "contin ue",
      "tr aff",
      "t i",
      "at al",
      "the s",
      "the me",
      "il ed",
      "um n",
      "T ime",
      "S um",
      "F our",
      "on a",
      "de termin",
      "F ox",
      "writ ers",
      "it ation",
      "B re",
      "aw are",
      "fav our",
      "ish op",
      "k in",
      "near by",
      "high ly",
      "ad ult",
      "Ze aland",
      "separ ate",
      "W all",
      "comb at",
      "art s",
      "met al",
      "ur t",
      "cult ure",
      "Mex ico",
      "os en",
      "ef fort",
      "in corpor",
      "present ed",
      "att ended",
      "om en",
      "Af rican",
      "redu ced",
      "ann ual",
      "ed ition",
      "H aw",
      "20 th",
      "pract ice",
      "og ue",
      "ex cept",
      "lo g",
      "D ar",
      "ros sing",
      "19 30",
      "D ou",
      "gir l",
      "me ans",
      "ne igh",
      "level s",
      "r ang",
      "divid ed",
      "Mc C",
      "c in",
      "ri a",
      "cont act",
      "tri ed",
      "ou d",
      "mo vie",
      "and s",
      "S oci",
      "th ick",
      "mar riage",
      "twent y",
      "199 3",
      "arch itect",
      "Mad onna",
      "accept ed",
      "o le",
      "st ating",
      "St one",
      "ma xim",
      "199 1",
      "4 00",
      "p ick",
      "air ed",
      "ser ve",
      "S A",
      "bl ed",
      "f ru",
      "responsi ble",
      "F ed",
      "qu ality",
      "id ing",
      "cand id",
      "char ge",
      "dire ction",
      "Scot land",
      "se em",
      "adv ance",
      "r ating",
      "inn ings",
      "e ve",
      "J ones",
      "9 5",
      "pre t",
      "h us",
      "p sy",
      "re in",
      "M oun",
      "school s",
      "p it",
      "d ing",
      "The ir",
      "ie ve",
      "net work",
      "we alth",
      "fun ction",
      "r are",
      "S imp",
      "man aged",
      "pass ing",
      "ri f",
      "l an",
      "s ides",
      "Bo ok",
      "res sion",
      "T im",
      "aw ard",
      "ill ery",
      "G reek",
      "R ol",
      "Dep artment",
      "ef forts",
      "F re",
      "colle ge",
      "it es",
      "econom ic",
      "p aid",
      "mean ing",
      "as ion",
      "result ing",
      "z er",
      "drop ped",
      "uten ant",
      "iv ing",
      "de m",
      "K ar",
      "show ed",
      "gu est",
      "l am",
      "In fantry",
      "moun tain",
      "Th ree",
      "c ust",
      "en vironment",
      "h all",
      "in side",
      "d an",
      "mur der",
      "S ur",
      "b ly",
      "v oy",
      "k ept",
      "o on",
      "ch ap",
      "ne st",
      "M en",
      "Amer ic",
      "allow ing",
      "r am",
      "G ames",
      "os aur",
      "cere mon",
      "B ost",
      "w inter",
      "cycl one",
      "w aters",
      "contro ver",
      "beg ins",
      "M ic",
      "Com mit",
      "se c",
      "vari ety",
      "m orning",
      "ceed ed",
      "set tle",
      "H or",
      "William s",
      "ar rest",
      "elect ric",
      "B a",
      "th ur",
      "sch ol",
      "U p",
      "o res",
      "Ser vice",
      "f arm",
      "B A",
      "p al",
      "c us",
      "in ches",
      "per or",
      "air s",
      "d a",
      "C reek",
      "Al li",
      "tit led",
      "St an",
      "p ath",
      "Record s",
      "activ ity",
      "P ost",
      "W ill",
      "ru le",
      "writ e",
      "am i",
      "continu es",
      "d rew",
      "d ance",
      "sy mb",
      "k y",
      "ro t",
      "is ation",
      "New s",
      "s quadron",
      "S R",
      "Par liament",
      "found ed",
      "sour ce",
      "bro ke",
      "av en",
      "re str",
      "F oot",
      "F ar",
      "p itch",
      "O h",
      "ph ere",
      "paren ts",
      "so le",
      "h undred",
      "ot t",
      "start ing",
      "I re",
      "condu cted",
      "y our",
      "ound s",
      "E gy",
      "vis ed",
      "stru gg",
      "ex cl",
      "con cert",
      "Soci ety",
      "7 8",
      "ad a",
      "194 2",
      "pres ence",
      "sp ot",
      "6 4",
      "Br idge",
      "Sou thern",
      "met res",
      "pl at",
      "I S",
      "ic ed",
      "S il",
      "c row",
      "ex hib",
      "R am",
      "S at",
      "sequ ence",
      "sell ing",
      "e th",
      "th ings",
      "E v",
      "mult iple",
      "contr ast",
      "Ar thur",
      "port un",
      "transfer red",
      "compan ies",
      "deli ver",
      "Commit tee",
      "fore ign",
      "Geor g",
      "colle ction",
      "en emy",
      "L atin",
      "ped o",
      "H ung",
      "peak ed",
      "G overn",
      "Cap tain",
      "C ross",
      "cont ent",
      "on ic",
      "ob tain",
      "m ess",
      "stor ies",
      "re comm",
      "Li ke",
      "Ox ford",
      "traff ic",
      "it a",
      "i to",
      "be comes",
      "accoun t",
      "D un",
      "Ad miral",
      "Jose ph",
      "Ch ief",
      "gre ater",
      "scor ing",
      "lo y",
      "voc al",
      "th ir",
      "h u",
      "Se cret",
      "call ing",
      "concl uded",
      "D en",
      "P A",
      "H arrison",
      "sk y",
      "pot ential",
      "4 1",
      "bird s",
      "proper ty",
      "Bost on",
      "attempt s",
      "relative ly",
      "cre ation",
      "streng th",
      "exten s",
      "demon str",
      "Man chester",
      "se ts",
      "ob served",
      "prim arily",
      "fed eral",
      "bl es",
      "7 6",
      "pr ise",
      "Cl ass",
      "act ually",
      "Egy pt",
      "Be cause",
      "Be fore",
      "finan cial",
      "Je ff",
      "anim als",
      "pro pos",
      "jour nal",
      "f a",
      "Sw ed",
      "K en",
      "Li fe",
      "fig ure",
      "H urricane",
      "ann a",
      "D ire",
      "op portun",
      "4 2",
      "ang er",
      "to urn",
      "ol f",
      "ident ified",
      "Com mission",
      "feat uring",
      "re pair",
      "an ge",
      "ste in",
      "ist ics",
      "194 4",
      "sc ale",
      "me chan",
      "F red",
      "Lit tle",
      "s a",
      "mis sed",
      "sh are",
      "8 5",
      "with draw",
      "situ ation",
      "ann el",
      "pro v",
      "G il",
      "dist ance",
      "Br ad",
      "version s",
      "Batt alion",
      "independ ent",
      "4 3",
      "pass eng",
      "ext reme",
      "po et",
      "An n",
      "th ous",
      "res ist",
      "15 0",
      "Par is",
      "l ap",
      "y er",
      "B BC",
      "k i",
      "coll abor",
      "in king",
      "in te",
      "h ere",
      "fac ed",
      "slight ly",
      "im age",
      "Ser ies",
      "sup pl",
      "re plac",
      "L ine",
      "M ax",
      "W al",
      "C a",
      "col or",
      "ci ent",
      "con cent",
      "mo b",
      "pro p",
      "per ial",
      "col our",
      "B at",
      "tor pedo",
      "second s",
      "to day",
      "P op",
      "199 0",
      "al leg",
      "res h",
      "V ol",
      "v ation",
      "tri al",
      "complete ly",
      "s quare",
      "L ight",
      "Cro at",
      "ultim ately",
      "p ack",
      "pro ved",
      "beh av",
      "confir med",
      "Hist or",
      "maxim um",
      "G ir",
      "stru ck",
      "be th",
      "bl ue",
      "tell ig",
      "ch er",
      "Ste phen",
      "Acad emy",
      "m aster",
      "s ought",
      "c ities",
      "19 20",
      "194 5",
      "gre en",
      "polic y",
      "bo at",
      "dis e",
      "we ather",
      "serv ing",
      "soci ety",
      "H L",
      "W ay",
      "M useum",
      "min im",
      "S aint",
      "comb ined",
      "main ly",
      "commission ed",
      "design ated",
      "n aval",
      "194 1",
      "expl ained",
      "ast ic",
      "s es",
      "offic ials",
      "north west",
      "influ enced",
      "il s",
      "con ver",
      "ben ef",
      "b order",
      "in i",
      "ev al",
      "ves sel",
      "Enter tainment",
      "power ful",
      "Ital y",
      "ill a",
      "Le e",
      "b atter",
      "O b",
      "We ek",
      "H y",
      "along side",
      "res ol",
      "vis ions",
      "ol der",
      "C A",
      "Br igade",
      "ul ations",
      "g ained",
      "ors es",
      "Americ ans",
      "S pr",
      "li p",
      "sour ces",
      "system s",
      "att end",
      "battles hip",
      "Ar ab",
      "d in",
      "say s",
      "pr inc",
      "H an",
      "successful ly",
      "organ ization",
      "se ek",
      "back ground",
      "indu stri",
      "gen cy",
      "ag a",
      "fe ed",
      "9 9",
      "ad el",
      "pe ace",
      "got i",
      "T od",
      "the ory",
      "capt ure",
      "se g",
      "ot a",
      "al ing",
      "al one",
      "nomin ated",
      "b ud",
      "em ents",
      "art ists",
      "ed ge",
      "reach ing",
      "st ay",
      "new s",
      "di f",
      "en cour",
      "proble m",
      "Reg iment",
      "el ve",
      "prom oted",
      "wide ly",
      "ol s",
      "b ass",
      "su st",
      "C D",
      "ian o",
      "mon d",
      "Mid dle",
      "S S",
      "result s",
      "sex ual",
      "hus band",
      "Ire land",
      "ac u",
      "L ive",
      "A venue",
      "trave l",
      "s mo",
      "br ary",
      "Fle et",
      "van ia",
      "album s",
      "off er",
      "L and",
      "M u",
      "subsequ ent",
      "gre atest",
      "road s",
      "I V",
      "R ay",
      "inv asion",
      "B or",
      "ar ms",
      "O s",
      "Ot to",
      "offic ially",
      "198 9",
      "f air",
      "t un",
      "R y",
      "affe cted",
      "six th",
      "coun ty",
      "W ind",
      "op in",
      "p ush",
      "sou theast",
      "spr ing",
      "L ie",
      "pil ot",
      "194 3",
      "short ly",
      "the less",
      "con test",
      "M D",
      "tr ue",
      "ex pressed",
      "she ll",
      "Com mon",
      "appear ances",
      "ar med",
      "do ing",
      "rece ption",
      "ca using",
      "min d",
      "M ah",
      "represent ed",
      "ad ed",
      "aren t",
      "Victor ia",
      "sen se",
      "organ ized",
      "phys ical",
      "cap ac",
      "Cath olic",
      "res idents",
      "def ense",
      "pie ces",
      "c ore",
      "te ach",
      "tell s",
      "d og",
      "T ropical",
      "ar ian",
      "ans ion",
      "sy l",
      "B us",
      "season s",
      "6 00",
      "Val ley",
      "it ude",
      "int end",
      "l aid",
      "ne goti",
      "ateg ory",
      "se mb",
      "h ospital",
      "grow th",
      "A sh",
      "k g",
      "u fact",
      "bo dies",
      "avo id",
      "ic ient",
      "requ ire",
      "act ors",
      "D utch",
      "m n",
      "p un",
      "T op",
      "7 7",
      "flo or",
      "Sh ow",
      "ach ed",
      "Th ough",
      "ir on",
      "re y",
      "ch air",
      "foc us",
      "vis ited",
      "ar g",
      "3 rd",
      "fir ed",
      "Com mun",
      "fel low",
      "ple ment",
      "in son",
      "at ures",
      "a res",
      "e as",
      "adv ant",
      "art illery",
      "a head",
      "weap ons",
      "Foot ball",
      "G ood",
      "d ition",
      "vo te",
      "R og",
      "G al",
      "ou l",
      "Th rough",
      "K enn",
      "us ual",
      "J ul",
      "H um",
      "quest ion",
      "ys is",
      "e igh",
      "mar ine",
      "S ub",
      "T ay",
      "Y oung",
      "o te",
      "lead ers",
      "W ell",
      "heav ily",
      "U pon",
      "Moun tain",
      "ing u",
      "ph il",
      "198 0s",
      "ped ition",
      "194 0",
      "ant a",
      "s pread",
      "stud ent",
      "ron ic",
      "app arent",
      "s n",
      "w ave",
      "g overnor",
      "studi es",
      "u str",
      "B ul",
      "p atter",
      "am ber",
      "pass es",
      "De f",
      "E le",
      "sion s",
      "execut ive",
      "pro test",
      "m ile",
      "I ll",
      "agre ement",
      "c atch",
      "Be y",
      "Dan iel",
      "debut ed",
      "c ip",
      "t able",
      "kil omet",
      "r ical",
      "cond ition",
      "prom inent",
      "set ting",
      "instr ument",
      "cons isted",
      "inj ury",
      "fig ures",
      "beg in",
      "w it",
      "ight s",
      "H ome",
      "equip ment",
      "ear th",
      "claim s",
      "O f",
      "m atter",
      "graph ic",
      "neg ative",
      "beli ev",
      "necess ary",
      "trans l",
      "def end",
      "6 6",
      "ot es",
      "argu ed",
      "ic i",
      "pres er",
      "Eli za",
      "T ele",
      "ard en",
      "g lo",
      "urb an",
      "om y",
      "d ated",
      "r ick",
      "nor mal",
      "op posed",
      "H omer",
      "C ivil",
      "return ing",
      "J on",
      "istr ict",
      "con temporary",
      "l ic",
      "197 0s",
      "p ict",
      "an i",
      "L y",
      "u be",
      "M ain",
      "m ut",
      "Nor thern",
      "fam ous",
      "r ig",
      "k er",
      "maintain ed",
      "k ick",
      "de g",
      "frequ ently",
      "ac es",
      "196 0s",
      "coup le",
      "P en",
      "typ es",
      "p aper",
      "ac her",
      "K r",
      "v on",
      "st ations",
      "D ev",
      "oc key",
      "v or",
      "g od",
      "de ck",
      "fin ish",
      "spe ech",
      "D istrict",
      "T em",
      "re ct",
      "z y",
      "T C",
      "critic ized",
      "man n",
      "activ ities",
      "Mar sh",
      "he ard",
      "mach ine",
      "Carol ina",
      "f olk",
      "B ond",
      "O cean",
      "dr ug",
      "i j",
      "to ward",
      "H a",
      "act s",
      "cit iz",
      "occas ion",
      "disc uss",
      "tourn ament",
      "plan et",
      "g am",
      "refer ence",
      "re ign",
      "tre es",
      "sing les",
      "an o",
      "co al",
      "el se",
      "led ge",
      "oper ated",
      "l ers",
      "198 7",
      "sen ior",
      "Scott ish",
      "ew ay",
      "Sy stem",
      "med ical",
      "A C",
      "as pect",
      "world wide",
      "ach ieve",
      "territ ory",
      "try ing",
      "W rit",
      "val ue",
      "ey e",
      "Govern ment",
      "im en",
      "198 8",
      "st re",
      "aw a",
      "Hol ly",
      "F antasy",
      "G overnor",
      "mo dif",
      "n arr",
      "Col on",
      "hold s",
      "Cast le",
      "et te",
      "h orses",
      "J ud",
      "F ield",
      "g ate",
      "Oper ation",
[...]
