{
  "version": "1.0",
  "truncation": null,
  "padding": null,
  "added_tokens": [
    {
      "id": 0,
      "content": "[UNK]",
      "single_word": false,
      "lstrip": false,
      "rstrip": false,
      "normalized": false,
      "special": true
    },
    {
      "id": 1,
      "content": "[CLS]",
      "single_word": false,
      "lstrip": false,
      "rstrip": false,
      "normalized": false,
      "special": true
    },
    {
      "id": 2,
      "content": "[SEP]",
      "single_word": false,
      "lstrip": false,
      "rstrip": false,
      "normalized": false,
      "special": true
    },
    {
      "id": 3,
      "content": "[PAD]",
      "single_word": false,
      "lstrip": false,
      "rstrip": false,
      "normalized": false,
      "special": true
    },
    {
      "id": 4,
      "content": "[MASK]",
      "single_word": false,
      "lstrip": false,
      "rstrip": false,
      "normalized": false,
      "special": true
    }
  ],
  "normalizer": null,
  "pre_tokenizer": {
    "type": "Whitespace"
  },
  "post_processor": null,
  "decoder": null,
  "model": {
    "type": "BPE",
    "dropout": null,
    "unk_token": "[UNK]",
    "continuing_subword_prefix": null,
    "end_of_word_suffix": null,
    "fuse_unk": false,
    "vocab": {
      "[UNK]": 0,
      "[CLS]": 1,
      "[SEP]": 2,
      "[PAD]": 3,
      "[MASK]": 4,
      "!": 5,
      "\"": 6,
      "#": 7,
      "$": 8,
      "%": 9,
      "&": 10,
      "'": 11,
      "(": 12,
      ")": 13,
      "*": 14,
      "+": 15,
      ",": 16,
      "-": 17,
      ".": 18,
      "/": 19,
      "0": 20,
      "1": 21,
      "2": 22,
      "3": 23,
      "4": 24,
      "5": 25,
      "6": 26,
      "7": 27,
      "8": 28,
      "9": 29,
      ":": 30,
      ";": 31,
      "<": 32,
      "=": 33,
      ">": 34,
      "?": 35,
      "@": 36,
      "A": 37,
      "B": 38,
      "C": 39,
      "D": 40,
      "E": 41,
      "F": 42,
      "G": 43,
      "H": 44,
      "I": 45,
      "J": 46,
      "K": 47,
      "L": 48,
      "M": 49,
      "N": 50,
      "O": 51,
      "P": 52,
      "Q": 53,
      "R": 54,
      "S": 55,
      "T": 56,
      "U": 57,
      "V": 58,
      "W": 59,
      "X": 60,
      "Y": 61,
      "Z": 62,
      "[": 63,
      "\\": 64,
      "]": 65,
      "^": 66,
      "_": 67,
      "`": 68,
      "a": 69,
      "b": 70,
      "c": 71,
      "d": 72,
      "e": 73,
      "f": 74,
      "g": 75,
      "h": 76,
      "i": 77,
      "j": 78,
      "k": 79,
      "l": 80,
      "m": 81,
      "n": 82,
      "o": 83,
      "p": 84,
      "q": 85,
      "r": 86,
      "s": 87,
      "t": 88,
      "u": 89,
      "v": 90,
      "w": 91,
      "x": 92,
      "y": 93,
      "z": 94,
      "{": 95,
      "|": 96,
      "}": 97,
      "~": 98,
      "th": 99,
      "in": 100,
      "er": 101,
      "an": 102,
      "the": 103,
      "on": 104,
      "ed": 105,
      "re": 106,
      "at": 107,
      "en": 108,
      "or": 109,
      "al": 110,
      "st": 111,
      "ar": 112,
      "and": 113,
      "as": 114,
      "of": 115,
      "ing": 116,
      "es": 117,
      "to": 118,
      "is": 119,
      "it": 120,
      "ou": 121,
      "ic": 122,
      "ion": 123,
      "le": 124,
      "he": 125,
      "ro": 126,
      "il": 127,
      "ac": 128,
      "ent": 129,
      "ad": 130,
      "se": 131,
      "am": 132,
      "om": 133,
      "be": 134,
      "ly": 135,
      "was": 136,
      "for": 137,
      "ch": 138,
      "ve": 139,
      "de": 140,
      "ur": 141,
      "ol": 142,
      "ir": 143,
      "The": 144,
      "im": 145,
      "-@": 146,
      "@-@": 147,
      "ig": 148,
      "ver": 149,
      "ter": 150,
      "wh": 151,
      "ow": 152,
      "un": 153,
      "ith": 154,
      "ce": 155,
      "ay": 156,
      "id": 157,
      "con": 158,
      "ation": 159,
      "ct": 160,
      "with": 161,
      "ag": 162,
      "that": 163,
      "te": 164,
      "by": 165,
      "us": 166,
      "ot": 167,
      "el": 168,
      "ere": 169,
      "ri": 170,
      "ul": 171,
      "ap": 172,
      "et": 173,
      "ut": 174,
      "19": 175,
      "res": 176,
      "ain": 177,
      "ers": 178,
      "op": 179,
      "pl": 180,
      "com": 181,
      "his": 182,
      "rom": 183,
      "um": 184,
      "all": 185,
      "00": 186,
      "ab": 187,
      "oun": 188,
      "ist": 189,
      "mo": 190,
      "su": 191,
      "ne": 192,
      "sh": 193,
      "pro": 194,
      "pe": 195,
      "from": 196,
      "In": 197,
      "cl": 198,
      "ate": 199,
      "are": 200,
      "li": 201,
      "tr": 202,
      "art": 203,
      "ther": 204,
      "os": 205,
      "igh": 206,
      "em": 207,
      "di": 208,
      "ex": 209,
      "ber": 210,
      "est": 211,
      "ich": 212,
      "ak": 213,
      "ld": 214,
      "were": 215,
      "oc": 216,
      "ill": 217,
      "ard": 218,
      "ast": 219,
      "ies": 220,
      "ant": 221,
      "per": 222,
      "ong": 223,
      "qu": 224,
      "gh": 225,
      "ment": 226,
      "ated": 227,
      "man": 228,
      "ive": 229,
      "out": 230,
      "ame": 231,
      "ity": 232,
      "ess": 233,
      "fe": 234,
      "od": 235,
      "our": 236,
      "had": 237,
      "end": 238,
      "ish": 239,
      "ack": 240,
      "ort": 241,
      "one": 242,
      "als": 243,
      "av": 244,
      "ge": 245,
      "over": 246,
      "ear": 247,
      "tw": 248,
      "af": 249,
      "ip": 250,
      "which": 251,
      "ough": 252,
      "der": 253,
      "but": 254,
      "gr": 255,
      "not": 256,
      "vi": 257,
      "ass": 258,
      "act": 259,
      "ally": 260,
      "ound": 261,
      "ave": 262,
      "str": 263,
      "ine": 264,
      "ight": 265,
      "her": 266,
      "ary": 267,
      "rit": 268,
      "ud": 269,
      "its": 270,
      "iv": 271,
      "du": 272,
      "pr": 273,
      "ian": 274,
      "ep": 275,
      "if": 276,
      "St": 277,
      "Ch": 278,
      "ore": 279,
      "20": 280,
      "wor": 281,
      "fir": 282,
      "up": 283,
      "200": 284,
      "ew": 285,
      "ia": 286,
      "ould": 287,
      "cor": 288,
      "au": 289,
      "ous": 290,
      "own": 291,
      "bo": 292,
      "bl": 293,
      "aw": 294,
      "ach": 295,
      "ction": 296,
      "ev": 297,
      "comp": 298,
      "age": 299,
      "ke": 300,
      "att": 301,
      "land": 302,
      "first": 303,
      "port": 304,
      "ign": 305,
      "ition": 306,
      "form": 307,
      "si": 308,
      "their": 309,
      "ical": 310,
      "lo": 311,
      "low": 312,
      "ial": 313,
      "ser": 314,
      "tim": 315,
      "ll": 316,
      "po": 317,
      "ater": 318,
      "also": 319,
      "He": 320,
      "who": 321,
      "br": 322,
      "int": 323,
      "part": 324,
      "ure": 325,
      "18": 326,
      "cre": 327,
      "has": 328,
      "other": 329,
      "ans": 330,
      "have": 331,
      "ome": 332,
      "play": 333,
      "pt": 334,
      "ok": 335,
      "ust": 336,
      "off": 337,
      "cont": 338,
      ".@": 339,
      "@.@": 340,
      "two": 341,
      "ile": 342,
      "ree": 343,
      "ence": 344,
      "co": 345,
      "pres": 346,
      "uring": 347,
      "me": 348,
      "been": 349,
      "pre": 350,
      "ice": 351,
      "we": 352,
      "ance": 353,
      "mer": 354,
      "dis": 355,
      ",@": 356,
      "@,@": 357,
      "201": 358,
      "Th": 359,
      "pos": 360,
      "It": 361,
      "ph": 362,
      "this": 363,
      "ory": 364,
      "year": 365,
      "after": 366,
      "ult": 367,
      "ell": 368,
      "ren": 369,
      "des": 370,
      "ace": 371,
      "sc": 372,
      "ved": 373,
      "fin": 374,
      "ark": 375,
      "An": 376,
      "cent": 377,
      "able": 378,
      "ade": 379,
      "mon": 380,
      "they": 381,
      "incl": 382,
      "ue": 383,
      "ite": 384,
      "ang": 385,
      "ail": 386,
      "Un": 387,
      "work": 388,
      "ever": 389,
      "ced": 390,
      "ff": 391,
      "air": 392,
      "cr": 393,
      "sion": 394,
      "cord": 395,
      "time": 396,
      "sp": 397,
      "inter": 398,
      "urn": 399,
      "ations": 400,
      "would": 401,
      "ship": 402,
      "iz": 403,
      "into": 404,
      "him": 405,
      "ick": 406,
      "vel": 407,
      "spe": 408,
      "she": 409,
      "no": 410,
      "mber": 411,
      "ie": 412,
      "ates": 413,
      "ict": 414,
      "ased": 415,
      "more": 416,
      "ire": 417,
      "ilm": 418,
      "ited": 419,
      "min": 420,
      "old": 421,
      "ty": 422,
      "way": 423,
      "Ar": 424,
      "son": 425,
      "amp": 426,
      "ces": 427,
      "most": 428,
      "og": 429,
      "new": 430,
      "fore": 431,
      "main": 432,
      "Al": 433,
      "bec": 434,
      "ry": 435,
      "any": 436,
      "ten": 437,
      "ret": 438,
      "ase": 439,
      "used": 440,
      "ann": 441,
      "ason": 442,
      "fl": 443,
      "ood": 444,
      "includ": 445,
      "cond": 446,
      "cess": 447,
      "cted": 448,
      "ings": 449,
      "ran": 450,
      "ind": 451,
      "ath": 452,
      "vis": 453,
      "les": 454,
      "ors": 455,
      "red": 456,
      "day": 457,
      "film": 458,
      "when": 459,
      "ted": 460,
      "ton": 461,
      "col": 462,
      "ild": 463,
      "rough": 464,
      "comm": 465,
      "ake": 466,
      "ward": 467,
      "Mar": 468,
      "ob": 469,
      "ck": 470,
      "ican": 471,
      "ens": 472,
      "Au": 473,
      "ts": 474,
      "bu": 475,
      "gan": 476,
      "ra": 477,
      "though": 478,
      "sy": 479,
      "reg": 480,
      "ions": 481,
      "Re": 482,
      "een": 483,
      "Wh": 484,
      "De": 485,
      "during": 486,
      "than": 487,
      "On": 488,
      "ose": 489,
      "again": 490,
      "so": 491,
      "game": 492,
      "gen": 493,
      "under": 494,
      "ble": 495,
      "ubl": 496,
      "char": 497,
      "nor": 498,
      "produ": 499,
      "199": 500,
      "only": 501,
      "ollow": 502,
      "them": 503,
      "about": 504,
      "ide": 505,
      "row": 506,
      "can": 507,
      "ents": 508,
      "while": 509,
      "New": 510,
      "En": 511,
      "ational": 512,
      "oy": 513,
      "some": 514,
      "song": 515,
      "rele": 516,
      "later": 517,
      "led": 518,
      "ered": 519,
      "outh": 520,
      "ele": 521,
      "tween": 522,
      "between": 523,
      "10": 524,
      "sing": 525,
      "ron": 526,
      "ating": 527,
      "coun": 528,
      "three": 529,
      "Af": 530,
      "kn": 531,
      "where": 532,
      "through": 533,
      "num": 534,
      "aid": 535,
      "As": 536,
      "season": 537,
      "ics": 538,
      "ful": 539,
      "view": 540,
      "my": 541,
      "lar": 542,
      "cons": 543,
      "Amer": 544,
      "ern": 545,
      "tain": 546,
      "writ": 547,
      "sub": 548,
      "stru": 549,
      "ied": 550,
      "dr": 551,
      "Le": 552,
      "then": 553,
      "rel": 554,
      "ular": 555,
      "iver": 556,
      "000": 557,
      "ters": 558,
      "sel": 559,
      "Jo": 560,
      "high": 561,
      "second": 562,
      "med": 563,
      "set": 564,
      "made": 565,
      "Com": 566,
      "ef": 567,
      "cur": 568,
      "ames": 569,
      "bum": 570,
      "record": 571,
      "four": 572,
      "do": 573,
      "go": 574,
      "cap": 575,
      "follow": 576,
      "ub": 577,
      "ock": 578,
      "17": 579,
      "spec": 580,
      "call": 581,
      "such": 582,
      "car": 583,
      "sur": 584,
      "eng": 585,
      "ished": 586,
      "atch": 587,
      "No": 588,
      "back": 589,
      "before": 590,
      "there": 591,
      "team": 592,
      "well": 593,
      "15": 594,
      "ma": 595,
      "iel": 596,
      "mus": 597,
      "inn": 598,
      "ven": 599,
      "cho": 600,
      "years": 601,
      "Sh": 602,
      "appe": 603,
      "Con": 604,
      "add": 605,
      "pol": 606,
      "This": 607,
      "ros": 608,
      "Nor": 609,
      "ident": 610,
      "sup": 611,
      "ific": 612,
      "album": 613,
      "publ": 614,
      "reat": 615,
      "ily": 616,
      "owever": 617,
      "je": 618,
      "fer": 619,
      "gu": 620,
      "..": 621,
      "tem": 622,
      "ale": 623,
      "ual": 624,
      "ative": 625,
      "unt": 626,
      "many": 627,
      "point": 628,
      "being": 629,
      "epis": 630,
      "uary": 631,
      "ond": 632,
      "oup": 633,
      "ode": 634,
      "ek": 635,
      "ince": 636,
      "war": 637,
      "velop": 638,
      "ins": 639,
      "At": 640,
      "ury": 641,
      "against": 642,
      "use": 643,
      "number": 644,
      "ped": 645,
      "Be": 646,
      "side": 647,
      "lead": 648,
      "show": 649,
      "ft": 650,
      "charac": 651,
      "After": 652,
      "par": 653,
      "16": 654,
      "sever": 655,
      "loc": 656,
      "12": 657,
      "mem": 658,
      "ash": 659,
      "long": 660,
      "ause": 661,
      "appear": 662,
      "ious": 663,
      "io": 664,
      "rece": 665,
      "became": 666,
      "Brit": 667,
      "including": 668,
      "hn": 669,
      "like": 670,
      "cy": 671,
      "United": 672,
      "serv": 673,
      "ese": 674,
      "Se": 675,
      "both": 676,
      "cri": 677,
      "ise": 678,
      "series": 679,
      "ost": 680,
      "198": 681,
      "found": 682,
      "feat": 683,
      "known": 684,
      "mi": 685,
      "line": 686,
      "igin": 687,
      "cover": 688,
      "did": 689,
      "194": 690,
      "She": 691,
      "rop": 692,
      "ended": 693,
      "eral": 694,
      "az": 695,
      "develop": 696,
      "tri": 697,
      "ley": 698,
      "mill": 699,
      "cer": 700,
      "War": 701,
      "contin": 702,
      "ments": 703,
      "ities": 704,
      "dire": 705,
      "ures": 706,
      "30": 707,
      "down": 708,
      "Eng": 709,
      "run": 710,
      "suc": 711,
      "pop": 712,
      "head": 713,
      "mar": 714,
      "diff": 715,
      "Wor": 716,
      "road": 717,
      "John": 718,
      "For": 719,
      "uch": 720,
      "pass": 721,
      "ird": 722,
      "episode": 723,
      "said": 724,
      "leg": 725,
      "por": 726,
      "ouse": 727,
      "west": 728,
      "ress": 729,
      "mis": 730,
      "che": 731,
      "Ro": 732,
      "could": 733,
      "erson": 734,
      "ah": 735,
      "several": 736,
      "lin": 737,
      "American": 738,
      "Gr": 739,
      "peri": 740,
      "orn": 741,
      "ield": 742,
      "vol": 743,
      "vid": 744,
      "14": 745,
      "origin": 746,
      "called": 747,
      "197": 748,
      "II": 749,
      "ised": 750,
      "comple": 751,
      "rest": 752,
      "196": 753,
      "Br": 754,
      "ually": 755,
      "sign": 756,
      "stem": 757,
      "music": 758,
      "self": 759,
      "bed": 760,
      "cept": 761,
      "remain": 762,
      "return": 763,
      "ste": 764,
      "oper": 765,
      "began": 766,
      "Ger": 767,
      "13": 768,
      "design": 769,
      "try": 770,
      "ting": 771,
      "ank": 772,
      "ople": 773,
      "chool": 774,
      "men": 775,
      "hel": 776,
      "trans": 777,
      "dec": 778,
      "state": 779,
      "aking": 780,
      "early": 781,
      "ci": 782,
      "ball": 783,
      "Tr": 784,
      "released": 785,
      "near": 786,
      "dist": 787,
      "hy": 788,
      "Col": 789,
      "US": 790,
      "ived": 791,
      "descri": 792,
      "une": 793,
      "ject": 794,
      "until": 795,
      "olog": 796,
      "arr": 797,
      "open": 798,
      "success": 799,
      "plac": 800,
      "present": 801,
      "sm": 802,
      "hist": 803,
      "fam": 804,
      "ross": 805,
      "arch": 806,
      "gg": 807,
      "Cl": 808,
      "May": 809,
      "ists": 810,
      "band": 811,
      "offic": 812,
      "val": 813,
      "crit": 814,
      "less": 815,
      "get": 816,
      "overn": 817,
      "50": 818,
      "jor": 819,
      "group": 820,
      "gust": 821,
      "ms": 822,
      "may": 823,
      "vent": 824,
      "along": 825,
      "ves": 826,
      "nam": 827,
      "bers": 828,
      "ower": 829,
      "mil": 830,
      "tow": 831,
      "million": 832,
      "xt": 833,
      "British": 834,
      "bre": 835,
      "cast": 836,
      "order": 837,
      "sim": 838,
      "ving": 839,
      "Sep": 840,
      "enn": 841,
      "met": 842,
      "these": 843,
      "oci": 844,
      "come": 845,
      "ric": 846,
      "ather": 847,
      "ized": 848,
      "fect": 849,
      "ord": 850,
      "attack": 851,
      "cut": 852,
      "Sp": 853,
      "Car": 854,
      "cle": 855,
      "Bl": 856,
      "let": 857,
      "Wil": 858,
      "tember": 859,
      "sk": 860,
      "national": 861,
      "stral": 862,
      "und": 863,
      "September": 864,
      "now": 865,
      "World": 866,
      "August": 867,
      "ured": 868,
      "stor": 869,
      "requ": 870,
      "States": 871,
      "batt": 872,
      "took": 873,
      "Ju": 874,
      "continu": 875,
      "ib": 876,
      "large": 877,
      "same": 878,
      "people": 879,
      "oot": 880,
      "ca": 881,
      "var": 882,
      "character": 883,
      "grap": 884,
      "dep": 885,
      "because": 886,
      "vide": 887,
      "11": 888,
      "light": 889,
      "ism": 890,
      "position": 891,
      "ired": 892,
      "result": 893,
      "around": 894,
      "Ad": 895,
      "Oc": 896,
      "Is": 897,
      "start": 898,
      "km": 899,
      "ctor": 900,
      "class": 901,
      "aving": 902,
      "king": 903,
      "cour": 904,
      "ivers": 905,
      "Jan": 906,
      "oth": 907,
      "aim": 908,
      "pon": 909,
      "la": 910,
      "Austral": 911,
      "mark": 912,
      "formed": 913,
      "vision": 914,
      "support": 915,
      "build": 916,
      "Pl": 917,
      "ants": 918,
      "week": 919,
      "tal": 920,
      "following": 921,
      "north": 922,
      "rist": 923,
      "life": 924,
      "allow": 925,
      "system": 926,
      "six": 927,
      "However": 928,
      "Pr": 929,
      "ison": 930,
      "aft": 931,
      "track": 932,
      "Octo": 933,
      "prom": 934,
      "ork": 935,
      "consid": 936,
      "ys": 937,
      "each": 938,
      "received": 939,
      "ime": 940,
      "urch": 941,
      "ax": 942,
      "will": 943,
      "October": 944,
      "ained": 945,
      "West": 946,
      "ility": 947,
      "ium": 948,
      "place": 949,
      "ling": 950,
      "sol": 951,
      "very": 952,
      "govern": 953,
      "ars": 954,
      "thern": 955,
      "liam": 956,
      "five": 957,
      "just": 958,
      "stand": 959,
      "area": 960,
      "right": 961,
      "wards": 962,
      "century": 963,
      "ask": 964,
      "appro": 965,
      "Sc": 966,
      "They": 967,
      "def": 968,
      "By": 969,
      "ina": 970,
      "match": 971,
      "partic": 972,
      "ately": 973,
      "ple": 974,
      "North": 975,
      "report": 976,
      "city": 977,
      "York": 978,
      "world": 979,
      "rote": 980,
      "public": 981,
      "book": 982,
      "June": 983,
      "top": 984,
      "contro": 985,
      "giv": 986,
      "tle": 987,
      "ger": 988,
      "jo": 989,
      "small": 990,
      "major": 991,
      "field": 992,
      "cording": 993,
      "King": 994,
      "25": 995,
      "ground": 996,
      "July": 997,
      "Can": 998,
      "Man": 999,
      "last": 1000,
      "Nove": 1001,
      "organ": 1002,
      "November": 1003,
      "played": 1004,
      "what": 1005,
      "ner": 1006,
      "atter": 1007,
      "turn": 1008,
      "town": 1009,
      "tit": 1010,
      "Fe": 1011,
      "person": 1012,
      "since": 1013,
      "ional": 1014,
      "lish": 1015,
      "single": 1016,
      "gun": 1017,
      "read": 1018,
      "Apr": 1019,
      "east": 1020,
      "March": 1021,
      "sequ": 1022,
      "ik": 1023,
      "April": 1024,
      "reach": 1025,
      "aged": 1026,
      "ude": 1027,
      "Mc": 1028,
      "Ac": 1029,
      "Co": 1030,
      "arm": 1031,
      "even": 1032,
      "care": 1033,
      "hal": 1034,
      "ural": 1035,
      "pri": 1036,
      "Eu": 1037,
      "ster": 1038,
      "Ge": 1039,
      "won": 1040,
      "name": 1041,
      "bro": 1042,
      "dom": 1043,
      "lit": 1044,
      "power": 1045,
      "idge": 1046,
      "differ": 1047,
      "0s": 1048,
      "Coun": 1049,
      "vious": 1050,
      "ica": 1051,
      "ague": 1052,
      "Indi": 1053,
      "ined": 1054,
      "test": 1055,
      "final": 1056,
      "ref": 1057,
      "left": 1058,
      "ier": 1059,
      "South": 1060,
      "ru": 1061,
      "due": 1062,
      "Me": 1063,
      "Ph": 1064,
      "gre": 1065,
      "udi": 1066,
      "south": 1067,
      "ages": 1068,
      "event": 1069,
      "version": 1070,
      "During": 1071,
      "list": 1072,
      "school": 1073,
      "Dece": 1074,
      "aff": 1075,
      "Ste": 1076,
      "avy": 1077,
      "German": 1078,
      "December": 1079,
      "Ed": 1080,
      "third": 1081,
      "ilt": 1082,
      "water": 1083,
      "ets": 1084,
      "incre": 1085,
      "month": 1086,
      "We": 1087,
      "ision": 1088,
      "moved": 1089,
      "much": 1090,
      "child": 1091,
      "ons": 1092,
      "expl": 1093,
      "another": 1094,
      "ians": 1095,
      "named": 1096,
      "January": 1097,
      "included": 1098,
      "195": 1099,
      "Or": 1100,
      "based": 1101,
      "issu": 1102,
      "All": 1103,
      "claim": 1104,
      "ls": 1105,
      "camp": 1106,
      "wrote": 1107,
      "ales": 1108,
      "193": 1109,
      "ships": 1110,
      "government": 1111,
      "ane": 1112,
      "24": 1113,
      "home": 1114,
      "kill": 1115,
      "chan": 1116,
      "apan": 1117,
      "When": 1118,
      "Pe": 1119,
      "short": 1120,
      "story": 1121,
      "Gu": 1122,
      "bert": 1123,
      "ially": 1124,
      "death": 1125,
      "app": 1126,
      "ute": 1127,
      "ically": 1128,
      "Pro": 1129,
      "ature": 1130,
      "ought": 1131,
      "Japan": 1132,
      "ody": 1133,
      "roy": 1134,
      "ext": 1135,
      "press": 1136,
      "using": 1137,
      "make": 1138,
      "tempt": 1139,
      "oss": 1140,
      "ital": 1141,
      "family": 1142,
      "review": 1143,
      "hand": 1144,
      "flu": 1145,
      "species": 1146,
      "house": 1147,
      "pect": 1148,
      "ution": 1149,
      "ney": 1150,
      "ement": 1151,
      "described": 1152,
      "ards": 1153,
      "rench": 1154,
      "fact": 1155,
      "dam": 1156,
      "previous": 1157,
      "...": 1158,
      "dest": 1159,
      "rown": 1160,
      "Bo": 1161,
      "ene": 1162,
      "Euro": 1163,
      "late": 1164,
      "forman": 1165,
      "beli": 1166,
      "thing": 1167,
      "real": 1168,
      "urther": 1169,
      "ler": 1170,
      "built": 1171,
      "cas": 1172,
      "gener": 1173,
      "ilar": 1174,
      "ness": 1175,
      "ified": 1176,
      "former": 1177,
      "best": 1178,
      "mp": 1179,
      "tak": 1180,
      "oute": 1181,
      "attempt": 1182,
      "placed": 1183,
      "games": 1184,
      "colle": 1185,
      "tract": 1186,
      "Mon": 1187,
      "polit": 1188,
      "ared": 1189,
      "held": 1190,
      "command": 1191,
      "ats": 1192,
      "Par": 1193,
      "put": 1194,
      "ety": 1195,
      "stud": 1196,
      "stit": 1197,
      "ford": 1198,
      "still": 1199,
      "His": 1200,
      "vo": 1201,
      "original": 1202,
      "gram": 1203,
      "those": 1204,
      "lim": 1205,
      "den": 1206,
      "constru": 1207,
      "addition": 1208,
      "augh": 1209,
      "Febr": 1210,
      "February": 1211,
      "gy": 1212,
      "fel": 1213,
      "next": 1214,
      "ently": 1215,
      "effect": 1216,
      "Christ": 1217,
      "ator": 1218,
      "22": 1219,
      "mid": 1220,
      "fall": 1221,
      "thor": 1222,
      "There": 1223,
      "fri": 1224,
      "performan": 1225,
      "100": 1226,
      "ham": 1227,
      "members": 1228,
      "sent": 1229,
      "rican": 1230,
      "ences": 1231,
      "ctions": 1232,
      "van": 1233,
      "Gen": 1234,
      "inc": 1235,
      "National": 1236,
      "ush": 1237,
      "mit": 1238,
      "Li": 1239,
      "Europe": 1240,
      "21": 1241,
      "bur": 1242,
      "iversity": 1243,
      "days": 1244,
      "period": 1245,
      "within": 1246,
      "ched": 1247,
      "ines": 1248,
      "French": 1249,
      "role": 1250,
      "release": 1251,
      "ze": 1252,
      "init": 1253,
      "although": 1254,
      "move": 1255,
      "wind": 1256,
      "video": 1257,
      "hip": 1258,
      "say": 1259,
      "rank": 1260,
      "half": 1261,
      "2010": 1262,
      "23": 1263,
      "na": 1264,
      "estab": 1265,
      "Her": 1266,
      "came": 1267,
      "Ser": 1268,
      "arri": 1269,
      "ps": 1270,
      "And": 1271,
      "ink": 1272,
      "wom": 1273,
      "William": 1274,
      "ropical": 1275,
      "continued": 1276,
      "law": 1277,
      "ali": 1278,
      "27": 1279,
      "craft": 1280,
      "aining": 1281,
      "ris": 1282,
      "ning": 1283,
      "ains": 1284,
      "hum": 1285,
      "uss": 1286,
      "round": 1287,
      "ulation": 1288,
      "ribut": 1289,
      "ones": 1290,
      "win": 1291,
      "sou": 1292,
      "posed": 1293,
      "however": 1294,
      "ending": 1295,
      "sen": 1296,
      "itary": 1297,
      "2008": 1298,
      "28": 1299,
      "fac": 1300,
      "ral": 1301,
      "inning": 1302,
      "uc": 1303,
      "2009": 1304,
      "Geor": 1305,
      "often": 1306,
      "you": 1307,
      "ried": 1308,
      "few": 1309,
      "rad": 1310,
      "ister": 1311,
      "imes": 1312,
      "equ": 1313,
      "mag": 1314,
      "Bar": 1315,
      "stri": 1316,
      "ampion": 1317,
      "take": 1318,
      "ix": 1319,
      "wood": 1320,
      "friend": 1321,
      "Des": 1322,
      "local": 1323,
      "Ear": 1324,
      "player": 1325,
      "2011": 1326,
      "Air": 1327,
      "similar": 1328,
      "26": 1329,
      "40": 1330,
      "among": 1331,
      "beg": 1332,
      "Inter": 1333,
      "production": 1334,
      "Mich": 1335,
      "ior": 1336,
      "ony": 1337,
      "force": 1338,
      "pite": 1339,
      "went": 1340,
      "different": 1341,
      "atic": 1342,
      "ove": 1343,
      "Char": 1344,
      "chang": 1345,
      "ery": 1346,
      "mission": 1347,
      "ides": 1348,
      "possi": 1349,
      "England": 1350,
      "storm": 1351,
      "One": 1352,
      "strong": 1353,
      "further": 1354,
      "night": 1355,
      "Har": 1356,
      "Mus": 1357,
      "post": 1358,
      "sty": 1359,
      "considered": 1360,
      "ae": 1361,
      "company": 1362,
      "Dav": 1363,
      "level": 1364,
      "served": 1365,
      "fire": 1366,
      "ices": 1367,
      "aver": 1368,
      "2007": 1369,
      "ided": 1370,
      "career": 1371,
      "uck": 1372,
      "ung": 1373,
      "ai": 1374,
      "ively": 1375,
      "provid": 1376,
      "City": 1377,
      "East": 1378,
      "having": 1379,
      "fort": 1380,
      "Park": 1381,
      "action": 1382,
      "ged": 1383,
      "ient": 1384,
      "commun": 1385,
      "exp": 1386,
      "trad": 1387,
      "Fr": 1388,
      "tele": 1389,
      "English": 1390,
      "que": 1391,
      "fron": 1392,
      "enter": 1393,
      "ops": 1394,
      "So": 1395,
      "club": 1396,
      "every": 1397,
      "ives": 1398,
      "hold": 1399,
      "without": 1400,
      "history": 1401,
      "refer": 1402,
      "Although": 1403,
      "lands": 1404,
      "studi": 1405,
      "wide": 1406,
      "graph": 1407,
      "written": 1408,
      "Scot": 1409,
      "2012": 1410,
      "stead": 1411,
      "become": 1412,
      "board": 1413,
      "29": 1414,
      "reet": 1415,
      "respon": 1416,
      "Lond": 1417,
      "influ": 1418,
      "Ang": 1419,
      "London": 1420,
      "foot": 1421,
      "sound": 1422,
      "Ex": 1423,
      "scor": 1424,
      "With": 1425,
      "ggest": 1426,
      "iss": 1427,
      "River": 1428,
      "Mo": 1429,
      "Batt": 1430,
      "invol": 1431,
      "suggest": 1432,
      "ington": 1433,
      "190": 1434,
      "bor": 1435,
      "tro": 1436,
      "Ne": 1437,
      "given": 1438,
      "bus": 1439,
      "prof": 1440,
      "announ": 1441,
      "divid": 1442,
      "oung": 1443,
      "mand": 1444,
      "key": 1445,
      "ds": 1446,
      "Te": 1447,
      "want": 1448,
      "Sy": 1449,
      "cial": 1450,
      "To": 1451,
      "cop": 1452,
      "comb": 1453,
      "ug": 1454,
      "building": 1455,
      "change": 1456,
      "High": 1457,
      "Canad": 1458,
      "imp": 1459,
      "Fl": 1460,
      "fr": 1461,
      "iment": 1462,
      "father": 1463,
      "gave": 1464,
      "successful": 1465,
      "common": 1466,
      "published": 1467,
      "close": 1468,
      "Pol": 1469,
      "University": 1470,
      "import": 1471,
      "stated": 1472,
      "seven": 1473,
      "sure": 1474,
      "good": 1475,
      "gn": 1476,
      "never": 1477,
      "While": 1478,
      "ailed": 1479,
      "returned": 1480,
      "anim": 1481,
      "beh": 1482,
      "omin": 1483,
      "produced": 1484,
      "total": 1485,
      "author": 1486,
      "face": 1487,
      "prote": 1488,
      "country": 1489,
      "del": 1490,
      "bar": 1491,
      "eved": 1492,
      "away": 1493,
      "see": 1494,
      "hour": 1495,
      "aren": 1496,
      "quad": 1497,
      "Cor": 1498,
      "sit": 1499,
      "popular": 1500,
      "tour": 1501,
      "omet": 1502,
      "aur": 1503,
      "ably": 1504,
      "fun": 1505,
      "reported": 1506,
      "Div": 1507,
      "Dr": 1508,
      "dri": 1509,
      "lost": 1510,
      "2006": 1511,
      "program": 1512,
      "capt": 1513,
      "chn": 1514,
      "compos": 1515,
      "great": 1516,
      "aign": 1517,
      "ways": 1518,
      "vest": 1519,
      "particular": 1520,
      "ama": 1521,
      "draw": 1522,
      "ks": 1523,
      "making": 1524,
      "rent": 1525,
      "vers": 1526,
      "include": 1527,
      "ened": 1528,
      "how": 1529,
      "According": 1530,
      "decl": 1531,
      "soci": 1532,
      "interest": 1533,
      "struct": 1534,
      "ology": 1535,
      "recorded": 1536,
      "indu": 1537,
      "covered": 1538,
      "ox": 1539,
      "fle": 1540,
      "forces": 1541,
      "need": 1542,
      "vict": 1543,
      "direct": 1544,
      "body": 1545,
      "urrican": 1546,
      "itions": 1547,
      "Am": 1548,
      "site": 1549,
      "Phil": 1550,
      "should": 1551,
      "plan": 1552,
      "voc": 1553,
      "ploy": 1554,
      "quar": 1555,
      "service": 1556,
      "ument": 1557,
      "suff": 1558,
      "moder": 1559,
      "performance": 1560,
      "died": 1561,
      "teen": 1562,
      "times": 1563,
      "net": 1564,
      "These": 1565,
      "grad": 1566,
      "ana": 1567,
      "coming": 1568,
      "fan": 1569,
      "rock": 1570,
      "pen": 1571,
      "ned": 1572,
      "Roy": 1573,
      "aircraft": 1574,
      "sum": 1575,
      "himself": 1576,
      "2013": 1577,
      "tell": 1578,
      "intro": 1579,
      "military": 1580,
      "flo": 1581,
      "pur": 1582,
      "iness": 1583,
      "Jack": 1584,
      "depend": 1585,
      "Australia": 1586,
      "room": 1587,
      "battle": 1588,
      "bas": 1589,
      "agre": 1590,
      "aul": 1591,
      "Pres": 1592,
      "songs": 1593,
      "aster": 1594,
      "elect": 1595,
      "Min": 1596,
      "member": 1597,
      "Rep": 1598,
      "cing": 1599,
      "itch": 1600,
      "gl": 1601,
      "critic": 1602,
      "development": 1603,
      "General": 1604
    },
    "merges": [
      "t h",
      "i n",
      "e r",
      "a n",
      "th e",
      "o n",
      "e d",
      "r e",
      "a t",
      "e n",
      "o r",
      "a l",
      "s t",
      "a r",
      "an d",
      "a s",
      "o f",
      "in g",
      "e s",
      "t o",
      "i s",
      "i t",
      "o u",
      "i c",
      "i on",
      "l e",
      "h e",
      "r o",
      "i l",
      "a c",
      "en t",
      "a d",
      "s e",
      "a m",
      "o m",
      "b e",
      "l y",
      "w as",
      "f or",
      "c h",
      "v e",
      "d e",
      "u r",
      "o l",
      "i r",
      "T he",
      "i m",
      "- @",
      "@ -@",
      "i g",
      "v er",
      "t er",
      "w h",
      "o w",
      "u n",
      "i th",
      "c e",
      "a y",
      "i d",
      "c on",
      "at ion",
      "c t",
      "w ith",
      "a g",
      "th at",
      "t e",
      "b y",
      "u s",
      "o t",
      "e l",
      "er e",
      "r i",
      "u l",
      "a p",
      "e t",
      "u t",
      "1 9",
      "re s",
      "a in",
      "er s",
      "o p",
      "p l",
      "c om",
      "h is",
      "ro m",
      "u m",
      "al l",
      "0 0",
      "a b",
      "ou n",
      "i st",
      "m o",
      "s u",
      "n e",
      "s h",
      "p ro",
      "p e",
      "f rom",
      "I n",
      "c l",
      "at e",
      "a re",
      "l i",
      "t r",
      "ar t",
      "th er",
      "o s",
      "ig h",
      "e m",
      "d i",
      "e x",
      "b er",
      "e st",
      "ic h",
      "a k",
      "l d",
      "w ere",
      "o c",
      "il l",
      "ar d",
      "a st",
      "i es",
      "an t",
      "p er",
      "on g",
      "q u",
      "g h",
      "m ent",
      "at ed",
      "m an",
      "i ve",
      "ou t",
      "am e",
      "it y",
      "es s",
      "f e",
      "o d",
      "ou r",
      "h ad",
      "en d",
      "is h",
      "ac k",
      "or t",
      "on e",
      "al s",
      "a v",
      "g e",
      "o ver",
      "e ar",
      "t w",
      "a f",
      "i p",
      "wh ich",
      "ou gh",
      "d er",
      "b ut",
      "g r",
      "n ot",
      "v i",
      "as s",
      "ac t",
      "al ly",
      "oun d",
      "a ve",
      "st r",
      "in e",
      "igh t",
      "h er",
      "ar y",
      "r it",
      "u d",
      "it s",
      "i v",
      "d u",
      "p r",
      "i an",
      "e p",
      "i f",
      "S t",
      "C h",
      "o re",
      "2 0",
      "w or",
      "f ir",
      "u p",
      "2 00",
      "e w",
      "i a",
      "ou ld",
      "c or",
      "a u",
      "ou s",
      "ow n",
      "b o",
      "b l",
      "a w",
      "ac h",
      "ct ion",
      "e v",
      "com p",
      "ag e",
      "k e",
      "at t",
      "l and",
      "fir st",
      "p ort",
      "ig n",
      "it ion",
      "for m",
      "s i",
      "the ir",
      "ic al",
      "l o",
      "l ow",
      "i al",
      "s er",
      "t im",
      "l l",
      "p o",
      "at er",
      "als o",
      "H e",
      "wh o",
      "b r",
      "in t",
      "p art",
      "u re",
      "1 8",
      "c re",
      "h as",
      "o ther",
      "an s",
      "h ave",
      "om e",
      "pl ay",
      "p t",
      "o k",
      "u st",
      "of f",
      "con t",
      ". @",
      "@ .@",
      "tw o",
      "i le",
      "re e",
      "en ce",
      "c o",
      "p res",
      "ur ing",
      "m e",
      "be en",
      "p re",
      "ic e",
      "w e",
      "an ce",
      "m er",
      "d is",
      ", @",
      "@ ,@",
      "20 1",
      "T h",
      "p os",
      "I t",
      "p h",
      "th is",
      "or y",
      "y ear",
      "af ter",
      "ul t",
      "el l",
      "re n",
      "d es",
      "ac e",
      "s c",
      "v ed",
      "f in",
      "ar k",
      "A n",
      "c ent",
      "ab le",
      "ad e",
      "m on",
      "the y",
      "in cl",
      "u e",
      "it e",
      "an g",
      "a il",
      "U n",
      "wor k",
      "e ver",
      "c ed",
      "f f",
      "a ir",
      "c r",
      "s ion",
      "cor d",
      "tim e",
      "s p",
      "in ter",
      "ur n",
      "ation s",
      "w ould",
      "sh ip",
      "i z",
      "in to",
      "h im",
      "ic k",
      "ve l",
      "s pe",
      "s he",
      "n o",
      "m ber",
      "i e",
      "at es",
      "ic t",
      "as ed",
      "mo re",
      "i re",
      "il m",
      "it ed",
      "m in",
      "ol d",
      "t y",
      "w ay",
      "A r",
      "s on",
      "am p",
      "c es",
      "mo st",
      "o g",
      "ne w",
      "f ore",
      "m ain",
      "A l",
      "be c",
      "r y",
      "an y",
      "t en",
      "re t",
      "as e",
      "us ed",
      "an n",
      "as on",
      "f l",
      "o od",
      "incl ud",
      "con d",
      "c ess",
      "ct ed",
      "ing s",
      "r an",
      "in d",
      "a th",
      "v is",
      "l es",
      "or s",
      "r ed",
      "d ay",
      "f ilm",
      "wh en",
      "t ed",
      "t on",
      "c ol",
      "il d",
      "r ough",
      "com m",
      "ak e",
      "w ard",
      "M ar",
      "o b",
      "c k",
      "ic an",
      "en s",
      "A u",
      "t s",
      "b u",
      "g an",
      "r a",
      "th ough",
      "s y",
      "re g",
      "ion s",
      "R e",
      "e en",
      "W h",
      "D e",
      "d uring",
      "th an",
      "O n",
      "o se",
      "ag ain",
      "s o",
      "g ame",
      "g en",
      "un der",
      "b le",
      "u bl",
      "ch ar",
      "n or",
      "pro du",
      "19 9",
      "on ly",
      "ol low",
      "the m",
      "ab out",
      "i de",
      "ro w",
      "c an",
      "ent s",
      "wh ile",
      "N ew",
      "E n",
      "ation al",
      "o y",
      "s ome",
      "s ong",
      "re le",
      "l ater",
      "l ed",
      "er ed",
      "ou th",
      "e le",
      "tw een",
      "be tween",
      "1 0",
      "s ing",
      "r on",
      "at ing",
      "c oun",
      "th ree",
      "A f",
      "k n",
      "wh ere",
      "th rough",
      "n um",
      "a id",
      "A s",
      "se ason",
      "ic s",
      "f ul",
      "vi ew",
      "m y",
      "l ar",
      "con s",
      "A mer",
      "er n",
      "t ain",
      "w rit",
      "su b",
      "str u",
      "i ed",
      "d r",
      "L e",
      "the n",
      "re l",
      "ul ar",
      "i ver",
      "00 0",
      "ter s",
      "se l",
      "J o",
      "h igh",
      "se cond",
      "m ed",
      "se t",
      "m ade",
      "C om",
      "e f",
      "c ur",
      "am es",
      "b um",
      "re cord",
      "f our",
      "d o",
      "g o",
      "c ap",
      "f ollow",
      "u b",
      "oc k",
      "1 7",
      "spe c",
      "c all",
      "su ch",
      "c ar",
      "s ur",
      "en g",
      "ish ed",
      "at ch",
      "N o",
      "b ack",
      "be fore",
      "th ere",
      "te am",
      "w ell",
      "1 5",
      "m a",
      "i el",
      "m us",
      "in n",
      "v en",
      "ch o",
      "year s",
      "S h",
      "ap pe",
      "C on",
      "ad d",
      "p ol",
      "T his",
      "ro s",
      "N or",
      "id ent",
      "su p",
      "if ic",
      "al bum",
      "p ubl",
      "re at",
      "il y",
      "ow ever",
      "j e",
      "f er",
      "g u",
      ". .",
      "te m",
      "al e",
      "u al",
      "at ive",
      "un t",
      "man y",
      "po int",
      "be ing",
      "ep is",
      "u ary",
      "on d",
      "ou p",
      "o de",
      "e k",
      "in ce",
      "w ar",
      "vel op",
      "in s",
      "A t",
      "ur y",
      "again st",
      "u se",
      "num ber",
      "p ed",
      "B e",
      "si de",
      "le ad",
      "sh ow",
      "f t",
      "char ac",
      "Af ter",
      "p ar",
      "1 6",
      "se ver",
      "l oc",
      "1 2",
      "m em",
      "as h",
      "l ong",
      "au se",
      "appe ar",
      "i ous",
      "i o",
      "re ce",
      "bec ame",
      "B rit",
      "includ ing",
      "h n",
      "li ke",
      "c y",
      "Un ited",
      "ser v",
      "es e",
      "S e",
      "bo th",
      "c ri",
      "is e",
      "ser ies",
      "o st",
      "19 8",
      "f ound",
      "fe at",
      "kn own",
      "m i",
      "l ine",
      "ig in",
      "c over",
      "d id",
      "19 4",
      "S he",
      "ro p",
      "end ed",
      "er al",
      "a z",
      "de velop",
      "t ri",
      "le y",
      "m ill",
      "c er",
      "W ar",
      "cont in",
      "ment s",
      "it ies",
      "di re",
      "u res",
      "3 0",
      "d own",
      "En g",
      "r un",
      "su c",
      "p op",
      "he ad",
      "m ar",
      "di ff",
      "W or",
      "ro ad",
      "Jo hn",
      "F or",
      "u ch",
      "p ass",
      "ir d",
      "epis ode",
      "s aid",
      "le g",
      "p or",
      "ou se",
      "w est",
      "res s",
      "m is",
      "c he",
      "R o",
      "c ould",
      "ers on",
      "a h",
      "sever al",
      "l in",
      "Amer ican",
      "G r",
      "per i",
      "or n",
      "iel d",
      "v ol",
      "v id",
      "1 4",
      "or igin",
      "call ed",
      "19 7",
      "I I",
      "is ed",
      "comp le",
      "re st",
      "19 6",
      "B r",
      "u ally",
      "s ign",
      "st em",
      "mus ic",
      "sel f",
      "b ed",
      "ce pt",
      "re main",
      "ret urn",
      "st e",
      "op er",
      "be gan",
      "G er",
      "1 3",
      "des ign",
      "tr y",
      "t ing",
      "an k",
      "op le",
      "cho ol",
      "m en",
      "he l",
      "tr ans",
      "de c",
      "st ate",
      "ak ing",
      "ear ly",
      "c i",
      "b all",
      "T r",
      "rele ased",
      "ne ar",
      "d ist",
      "h y",
      "C ol",
      "U S",
      "iv ed",
      "des cri",
      "un e",
      "je ct",
      "unt il",
      "ol og",
      "ar r",
      "op en",
      "suc cess",
      "pl ac",
      "pres ent",
      "s m",
      "h ist",
      "f am",
      "ros s",
      "ar ch",
      "g g",
      "C l",
      "M ay",
      "ist s",
      "b and",
      "off ic",
      "v al",
      "c rit",
      "l ess",
      "g et",
      "over n",
      "5 0",
      "j or",
      "gr oup",
      "g ust",
      "m s",
      "m ay",
      "v ent",
      "al ong",
      "v es",
      "n am",
      "b ers",
      "ow er",
      "m il",
      "to w",
      "mill ion",
      "x t",
      "Brit ish",
      "b re",
      "c ast",
      "or der",
      "s im",
      "v ing",
      "S ep",
      "en n",
      "m et",
      "the se",
      "oc i",
      "com e",
      "r ic",
      "a ther",
      "iz ed",
      "fe ct",
      "or d",
      "att ack",
      "c ut",
      "S p",
      "C ar",
      "c le",
      "B l",
      "le t",
      "W il",
      "te mber",
      "s k",
      "n ational",
      "str al",
      "un d",
      "Sep tember",
      "n ow",
      "Wor ld",
      "Au gust",
      "ur ed",
      "st or",
      "re qu",
      "St ates",
      "b att",
      "to ok",
      "J u",
      "contin u",
      "i b",
      "lar ge",
      "s ame",
      "pe ople",
      "o ot",
      "c a",
      "v ar",
      "charac ter",
      "gr ap",
      "de p",
      "bec ause",
      "vi de",
      "1 1",
      "l ight",
      "is m",
      "pos ition",
      "ir ed",
      "res ult",
      "ar ound",
      "A d",
      "O c",
      "I s",
      "st art",
      "k m",
      "ct or",
      "cl ass",
      "av ing",
      "k ing",
      "c our",
      "iver s",
      "J an",
      "o th",
      "a im",
      "p on",
      "l a",
      "Au stral",
      "m ark",
      "form ed",
      "vis ion",
      "sup port",
      "bu ild",
      "P l",
      "ant s",
      "we ek",
      "t al",
      "follow ing",
      "nor th",
      "ri st",
      "li fe",
      "all ow",
      "sy stem",
      "si x",
      "H owever",
      "P r",
      "is on",
      "af t",
      "tr ack",
      "Oc to",
      "p rom",
      "or k",
      "cons id",
      "y s",
      "e ach",
      "rece ived",
      "im e",
      "ur ch",
      "a x",
      "w ill",
      "Octo ber",
      "ain ed",
      "W est",
      "il ity",
      "i um",
      "pl ace",
      "l ing",
      "s ol",
      "ver y",
      "g overn",
      "ar s",
      "ther n",
      "li am",
      "f ive",
      "j ust",
      "st and",
      "are a",
      "r ight",
      "ward s",
      "cent ury",
      "as k",
      "ap pro",
      "S c",
      "The y",
      "de f",
      "B y",
      "in a",
      "m atch",
      "part ic",
      "ate ly",
      "p le",
      "Nor th",
      "re port",
      "c ity",
      "Y ork",
      "wor ld",
      "ro te",
      "publ ic",
      "bo ok",
      "J une",
      "to p",
      "cont ro",
      "g iv",
      "t le",
      "g er",
      "j o",
      "sm all",
      "ma jor",
      "f ield",
      "cord ing",
      "K ing",
      "2 5",
      "gr ound",
      "Ju ly",
      "C an",
      "M an",
      "l ast",
      "No ve",
      "or gan",
      "Nove mber",
      "play ed",
      "wh at",
      "n er",
      "at ter",
      "t urn",
      "tow n",
      "t it",
      "F e",
      "p erson",
      "s ince",
      "ion al",
      "l ish",
      "sing le",
      "g un",
      "re ad",
      "A pr",
      "e ast",
      "Mar ch",
      "se qu",
      "i k",
      "Apr il",
      "re ach",
      "ag ed",
      "u de",
      "M c",
      "A c",
      "C o",
      "ar m",
      "ev en",
      "c are",
      "h al",
      "ur al",
      "p ri",
      "E u",
      "st er",
      "G e",
      "w on",
      "n ame",
      "b ro",
      "d om",
      "l it",
      "p ower",
      "id ge",
      "diff er",
      "0 s",
      "C oun",
      "vi ous",
      "ic a",
      "ag ue",
      "In di",
      "in ed",
      "te st",
      "fin al",
      "re f",
      "le ft",
      "i er",
      "S outh",
      "r u",
      "du e",
      "M e",
      "P h",
      "g re",
      "u di",
      "s outh",
      "ag es",
      "ev ent",
      "ver sion",
      "D uring",
      "l ist",
      "s chool",
      "De ce",
      "af f",
      "S te",
      "av y",
      "Ger man",
      "Dece mber",
      "E d",
      "th ird",
      "il t",
      "w ater",
      "et s",
      "in cre",
      "mon th",
      "W e",
      "is ion",
      "mo ved",
      "m uch",
      "ch ild",
      "on s",
      "ex pl",
      "an other",
      "ian s",
      "nam ed",
      "Jan uary",
      "includ ed",
      "19 5",
      "O r",
      "b ased",
      "is su",
      "A ll",
      "cl aim",
      "l s",
      "c amp",
      "w rote",
      "al es",
      "19 3",
      "ship s",
      "govern ment",
      "an e",
      "2 4",
      "h ome",
      "k ill",
      "ch an",
      "ap an",
      "Wh en",
      "P e",
      "sh ort",
      "st ory",
      "G u",
      "ber t",
      "i ally",
      "de ath",
      "ap p",
      "u te",
      "ic ally",
      "P ro",
      "at ure",
      "ough t",
      "J apan",
      "od y",
      "ro y",
      "ex t",
      "pres s",
      "us ing",
      "m ake",
      "tem pt",
      "os s",
      "it al",
      "fam ily",
      "re view",
      "h and",
      "fl u",
      "spec ies",
      "h ouse",
      "pe ct",
      "ut ion",
      "ne y",
      "em ent",
      "descri bed",
      "ard s",
      "ren ch",
      "f act",
      "d am",
      "pre vious",
      ".. .",
      "de st",
      "row n",
      "B o",
      "en e",
      "Eu ro",
      "l ate",
      "for man",
      "be li",
      "th ing",
      "re al",
      "ur ther",
      "l er",
      "bu ilt",
      "c as",
      "gen er",
      "il ar",
      "n ess",
      "if ied",
      "form er",
      "be st",
      "m p",
      "t ak",
      "ou te",
      "at tempt",
      "plac ed",
      "g ames",
      "col le",
      "tr act",
      "M on",
      "pol it",
      "ar ed",
      "he ld",
      "comm and",
      "at s",
      "P ar",
      "p ut",
      "et y",
      "st ud",
      "st it",
      "for d",
      "st ill",
      "H is",
      "v o",
      "origin al",
      "gr am",
      "th ose",
      "l im",
      "d en",
      "con stru",
      "add ition",
      "au gh",
      "Fe br",
      "Febr uary",
      "g y",
      "f el",
      "ne xt",
      "ent ly",
      "ef fect",
      "Ch rist",
      "at or",
      "2 2",
      "m id",
      "f all",
      "th or",
      "Th ere",
      "f ri",
      "per forman",
      "1 00",
      "h am",
      "mem bers",
      "s ent",
      "r ican",
      "en ces",
      "ction s",
      "v an",
      "G en",
      "in c",
      "N ational",
      "us h",
      "m it",
      "L i",
      "Euro pe",
      "2 1",
      "b ur",
      "ivers ity",
      "day s",
      "peri od",
      "with in",
      "ch ed",
      "in es",
      "F rench",
      "ro le",
      "rele ase",
      "z e",
      "in it",
      "al though",
      "mo ve",
      "w ind",
      "vide o",
      "h ip",
      "s ay",
      "ran k",
      "hal f",
      "201 0",
      "2 3",
      "n a",
      "est ab",
      "H er",
      "c ame",
      "S er",
      "ar ri",
      "p s",
      "An d",
      "in k",
      "w om",
      "Wil liam",
      "rop ical",
      "continu ed",
      "l aw",
      "al i",
      "2 7",
      "cr aft",
      "ain ing",
      "r is",
      "n ing",
      "ain s",
      "h um",
      "us s",
      "r ound",
      "ul ation",
      "ri but",
      "on es",
      "w in",
      "s ou",
      "pos ed",
      "h owever",
      "end ing",
      "s en",
      "it ary",
      "200 8",
      "2 8",
      "f ac",
      "r al",
      "inn ing",
      "u c",
      "200 9",
      "Ge or",
      "of ten",
      "y ou",
      "ri ed",
      "fe w",
      "r ad",
      "ist er",
      "im es",
      "e qu",
      "m ag",
      "B ar",
      "st ri",
      "amp ion",
      "t ake",
      "i x",
      "w ood",
      "fri end",
      "D es",
      "loc al",
      "E ar",
      "play er",
      "201 1",
      "A ir",
      "sim ilar",
      "2 6",
      "4 0",
      "am ong",
      "be g",
      "In ter",
      "produ ction",
      "M ich",
      "i or",
      "on y",
      "for ce",
      "p ite",
      "w ent",
      "differ ent",
      "at ic",
      "o ve",
      "Ch ar",
      "ch ang",
      "er y",
      "mis sion",
      "id es",
      "pos si",
      "Eng land",
      "stor m",
      "O ne",
      "str ong",
      "f urther",
      "n ight",
      "H ar",
      "M us",
      "po st",
      "st y",
      "consid ered",
      "a e",
      "comp any",
      "D av",
      "le vel",
      "ser ved",
      "f ire",
      "ic es",
      "a ver",
      "200 7",
      "id ed",
      "care er",
      "u ck",
      "un g",
      "a i",
      "ive ly",
      "pro vid",
      "C ity",
      "E ast",
      "h aving",
      "for t",
      "P ark",
      "act ion",
      "g ed",
      "i ent",
      "comm un",
      "ex p",
      "tr ad",
      "F r",
      "te le",
      "Eng lish",
      "qu e",
      "f ron",
      "ent er",
      "op s",
      "S o",
      "cl ub",
      "ever y",
      "iv es",
      "h old",
      "with out",
      "hist ory",
      "re fer",
      "Al though",
      "land s",
      "st udi",
      "w ide",
      "grap h",
      "writ ten",
      "Sc ot",
      "201 2",
      "ste ad",
      "be come",
      "bo ard",
      "2 9",
      "re et",
      "res pon",
      "L ond",
      "in flu",
      "An g",
      "Lond on",
      "f oot",
      "s ound",
      "E x",
      "s cor",
      "W ith",
      "gg est",
      "is s",
      "R iver",
      "M o",
      "B att",
      "in vol",
      "su ggest",
      "ing ton",
      "19 0",
      "b or",
      "t ro",
      "N e",
      "giv en",
      "b us",
      "pr of",
      "ann oun",
      "di vid",
      "oun g",
      "m and",
      "ke y",
      "d s",
      "T e",
      "w ant",
      "S y",
      "c ial",
      "T o",
      "c op",
      "com b",
      "u g",
      "build ing",
      "chan ge",
      "H igh",
      "Can ad",
      "im p",
      "F l",
      "f r",
      "im ent",
      "f ather",
      "g ave",
      "success ful",
      "com mon",
      "publ ished",
      "cl ose",
      "P ol",
      "Un iversity",
      "im port",
      "st ated",
      "se ven",
      "su re",
      "g ood",
      "g n",
      "ne ver",
      "Wh ile",
      "ail ed",
      "return ed",
      "an im",
      "be h",
      "om in",
      "produ ced",
      "to tal",
      "au thor",
      "f ace",
      "pro te",
      "coun try",
      "de l",
      "b ar",
      "ev ed",
      "aw ay",
      "se e",
      "h our",
      "are n",
      "qu ad",
      "C or",
      "s it",
      "pop ular",
      "to ur",
      "om et",
      "a ur",
      "ab ly",
      "f un",
      "report ed",
      "D iv",
      "D r",
      "d ri",
      "lo st",
      "200 6",
      "pro gram",
      "cap t",
      "ch n",
      "comp os",
      "g reat",
      "a ign",
      "way s",
      "ve st",
      "partic ular",
      "am a",
      "dr aw",
      "k s",
      "m aking",
      "ren t",
      "ver s",
      "incl ude",
      "en ed",
      "h ow",
      "Ac cording",
      "de cl",
      "s oci",
      "inter est",
      "stru ct",
      "olog y",
      "record ed",
      "in du",
      "cover ed",
      "o x",
      "f le",
      "for ces",
      "ne ed",
      "v ict",
      "dire ct",
      "b ody",
      "ur rican",
      "ition s",
      "A m",
      "s ite",
      "Ph il",
      "sh ould",
      "pl an",
      "v oc",
      "pl oy",
      "qu ar",
      "serv ice",
      "um ent",
      "su ff",
      "mo der",
      "performan ce",
      "di ed",
      "te en",
      "tim es",
      "n et",
      "Th ese",
      "gr ad",
      "an a",
      "com ing",
      "f an",
      "ro ck",
      "p en",
      "n ed",
      "R oy",
      "air craft",
      "s um",
      "him self",
      "201 3",
      "te ll",
      "int ro",
      "mil itary",
      "f lo",
      "p ur",
      "in ess",
      "J ack",
      "dep end",
      "Austral ia",
      "ro om",
      "batt le",
      "b as",
      "ag re",
      "a ul",
      "P res",
      "song s",
      "ast er",
      "ele ct",
      "M in",
      "mem ber",
      "R ep",
      "c ing",
      "it ch",
      "g l",
      "crit ic",
      "develop ment",
      "Gen eral"
    ]
  }
}